#ifndef GESTURE_MODEL_H
#define GESTURE_MODEL_H

#include <stdint.h>

#ifdef __GNUC__
#define ALIGN_ATTRIBUTE __attribute__((aligned(8)))
#else
#define ALIGN_ATTRIBUTE alignas(8)
#endif

ALIGN_ATTRIBUTE unsigned char gesture_model[] = {
  0x1c, 0x00, 0x00, 0x00, 0x54, 0x46, 0x4c, 0x33, 0x14, 0x00, 0x20, 0x00,
  0x1c, 0x00, 0x18, 0x00, 0x14, 0x00, 0x10, 0x00, 0x0c, 0x00, 0x00, 0x00,
  0x08, 0x00, 0x04, 0x00, 0x14, 0x00, 0x00, 0x00, 0x1c, 0x00, 0x00, 0x00,
  0x84, 0x00, 0x00, 0x00, 0xdc, 0x00, 0x00, 0x00, 0xd8, 0x33, 0x00, 0x00,
  0xe8, 0x33, 0x00, 0x00, 0xfc, 0x51, 0x00, 0x00, 0x03, 0x00, 0x00, 0x00,
  0x01, 0x00, 0x00, 0x00, 0x04, 0x00, 0x00, 0x00, 0x82, 0xc8, 0xff, 0xff,
  0x0c, 0x00, 0x00, 0x00, 0x1c, 0x00, 0x00, 0x00, 0x3c, 0x00, 0x00, 0x00,
  0x0f, 0x00, 0x00, 0x00, 0x73, 0x65, 0x72, 0x76, 0x69, 0x6e, 0x67, 0x5f,
  0x64, 0x65, 0x66, 0x61, 0x75, 0x6c, 0x74, 0x00, 0x01, 0x00, 0x00, 0x00,
  0x04, 0x00, 0x00, 0x00, 0x98, 0xff, 0xff, 0xff, 0x2b, 0x00, 0x00, 0x00,
  0x04, 0x00, 0x00, 0x00, 0x08, 0x00, 0x00, 0x00, 0x6f, 0x75, 0x74, 0x70,
  0x75, 0x74, 0x5f, 0x30, 0x00, 0x00, 0x00, 0x00, 0x01, 0x00, 0x00, 0x00,
  0x04, 0x00, 0x00, 0x00, 0xce, 0xcb, 0xff, 0xff, 0x04, 0x00, 0x00, 0x00,
  0x05, 0x00, 0x00, 0x00, 0x69, 0x6e, 0x70, 0x75, 0x74, 0x00, 0x00, 0x00,
  0x02, 0x00, 0x00, 0x00, 0x34, 0x00, 0x00, 0x00, 0x04, 0x00, 0x00, 0x00,
  0xdc, 0xff, 0xff, 0xff, 0x2e, 0x00, 0x00, 0x00, 0x04, 0x00, 0x00, 0x00,
  0x13, 0x00, 0x00, 0x00, 0x43, 0x4f, 0x4e, 0x56, 0x45, 0x52, 0x53, 0x49,
  0x4f, 0x4e, 0x5f, 0x4d, 0x45, 0x54, 0x41, 0x44, 0x41, 0x54, 0x41, 0x00,
  0x08, 0x00, 0x0c, 0x00, 0x08, 0x00, 0x04, 0x00, 0x08, 0x00, 0x00, 0x00,
  0x2d, 0x00, 0x00, 0x00, 0x04, 0x00, 0x00, 0x00, 0x13, 0x00, 0x00, 0x00,
  0x6d, 0x69, 0x6e, 0x5f, 0x72, 0x75, 0x6e, 0x74, 0x69, 0x6d, 0x65, 0x5f,
  0x76, 0x65, 0x72, 0x73, 0x69, 0x6f, 0x6e, 0x00, 0x2f, 0x00, 0x00, 0x00,
  0xf8, 0x32, 0x00, 0x00, 0xf0, 0x32, 0x00, 0x00, 0xa0, 0x32, 0x00, 0x00,
  0x50, 0x32, 0x00, 0x00, 0x20, 0x32, 0x00, 0x00, 0x04, 0x32, 0x00, 0x00,
  0xe8, 0x31, 0x00, 0x00, 0xd8, 0x19, 0x00, 0x00, 0x48, 0x19, 0x00, 0x00,
  0x38, 0x0d, 0x00, 0x00, 0xa8, 0x08, 0x00, 0x00, 0x98, 0x04, 0x00, 0x00,
  0x84, 0x04, 0x00, 0x00, 0x70, 0x04, 0x00, 0x00, 0x58, 0x04, 0x00, 0x00,
  0x40, 0x04, 0x00, 0x00, 0x2c, 0x04, 0x00, 0x00, 0xdc, 0x03, 0x00, 0x00,
  0x8c, 0x03, 0x00, 0x00, 0x3c, 0x03, 0x00, 0x00, 0xec, 0x02, 0x00, 0x00,
  0x5c, 0x02, 0x00, 0x00, 0xcc, 0x01, 0x00, 0x00, 0x3c, 0x01, 0x00, 0x00,
  0x34, 0x01, 0x00, 0x00, 0x2c, 0x01, 0x00, 0x00, 0x24, 0x01, 0x00, 0x00,
  0x1c, 0x01, 0x00, 0x00, 0x14, 0x01, 0x00, 0x00, 0x0c, 0x01, 0x00, 0x00,
  0x04, 0x01, 0x00, 0x00, 0xfc, 0x00, 0x00, 0x00, 0xf4, 0x00, 0x00, 0x00,
  0xec, 0x00, 0x00, 0x00, 0xe4, 0x00, 0x00, 0x00, 0xdc, 0x00, 0x00, 0x00,
  0xd4, 0x00, 0x00, 0x00, 0xcc, 0x00, 0x00, 0x00, 0xc4, 0x00, 0x00, 0x00,
  0xbc, 0x00, 0x00, 0x00, 0xb4, 0x00, 0x00, 0x00, 0xac, 0x00, 0x00, 0x00,
  0xa4, 0x00, 0x00, 0x00, 0x9c, 0x00, 0x00, 0x00, 0x94, 0x00, 0x00, 0x00,
  0x74, 0x00, 0x00, 0x00, 0x04, 0x00, 0x00, 0x00, 0xfe, 0xcc, 0xff, 0xff,
  0x04, 0x00, 0x00, 0x00, 0x60, 0x00, 0x00, 0x00, 0x10, 0x00, 0x00, 0x00,
  0x00, 0x00, 0x00, 0x00, 0x08, 0x00, 0x0e, 0x00, 0x08, 0x00, 0x04, 0x00,
  0x08, 0x00, 0x00, 0x00, 0x10, 0x00, 0x00, 0x00, 0x24, 0x00, 0x00, 0x00,
  0x00, 0x00, 0x06, 0x00, 0x08, 0x00, 0x04, 0x00, 0x06, 0x00, 0x00, 0x00,
  0x04, 0x00, 0x00, 0x00, 0x00, 0x00, 0x00, 0x00, 0x0c, 0x00, 0x18, 0x00,
  0x14, 0x00, 0x10, 0x00, 0x0c, 0x00, 0x04, 0x00, 0x0c, 0x00, 0x00, 0x00,
  0xa2, 0xe6, 0xb5, 0xaa, 0x05, 0x77, 0xf6, 0x53, 0x02, 0x00, 0x00, 0x00,
  0x02, 0x00, 0x00, 0x00, 0x04, 0x00, 0x00, 0x00, 0x06, 0x00, 0x00, 0x00,
  0x32, 0x2e, 0x32, 0x30, 0x2e, 0x30, 0x00, 0x00, 0x6a, 0xcd, 0xff, 0xff,
  0x04, 0x00, 0x00, 0x00, 0x10, 0x00, 0x00, 0x00, 0x32, 0x2e, 0x33, 0x2e,
  0x30, 0x00, 0x00, 0x00, 0x00, 0x00, 0x00, 0x00, 0x00, 0x00, 0x00, 0x00,
  0x94, 0xaf, 0xff, 0xff, 0x98, 0xaf, 0xff, 0xff, 0x9c, 0xaf, 0xff, 0xff,
  0xa0, 0xaf, 0xff, 0xff, 0xa4, 0xaf, 0xff, 0xff, 0xa8, 0xaf, 0xff, 0xff,
  0xac, 0xaf, 0xff, 0xff, 0xb0, 0xaf, 0xff, 0xff, 0xb4, 0xaf, 0xff, 0xff,
  0xb8, 0xaf, 0xff, 0xff, 0xbc, 0xaf, 0xff, 0xff, 0xc0, 0xaf, 0xff, 0xff,
  0xc4, 0xaf, 0xff, 0xff, 0xc8, 0xaf, 0xff, 0xff, 0xcc, 0xaf, 0xff, 0xff,
  0xd0, 0xaf, 0xff, 0xff, 0xd4, 0xaf, 0xff, 0xff, 0xd8, 0xaf, 0xff, 0xff,
  0xdc, 0xaf, 0xff, 0xff, 0xe0, 0xaf, 0xff, 0xff, 0xe4, 0xaf, 0xff, 0xff,
  0xda, 0xcd, 0xff, 0xff, 0x04, 0x00, 0x00, 0x00, 0x80, 0x00, 0x00, 0x00,
  0x3e, 0x77, 0x7a, 0xbd, 0x6c, 0x1f, 0xb5, 0xbd, 0x36, 0xba, 0x41, 0xbe,
  0x81, 0x7d, 0x48, 0xbe, 0xa1, 0x6d, 0xfd, 0xbd, 0x4f, 0x46, 0xdf, 0xbd,
  0x26, 0xae, 0x4c, 0xbd, 0x39, 0x12, 0x06, 0xbe, 0x86, 0x5d, 0x1b, 0xbe,
  0x09, 0xfb, 0x8e, 0xbe, 0xa4, 0x23, 0x15, 0xbe, 0x75, 0xd3, 0x59, 0xbd,
  0x41, 0x28, 0x28, 0xbd, 0xdc, 0x27, 0x7b, 0xbe, 0x26, 0x52, 0xd1, 0xbd,
  0x1c, 0x84, 0x83, 0xbe, 0x73, 0x73, 0x61, 0xbe, 0x90, 0xa0, 0x62, 0xbe,
  0x42, 0xda, 0xcf, 0xbc, 0x52, 0x66, 0x27, 0xbe, 0xd8, 0xb5, 0x94, 0xbe,
  0x07, 0x03, 0x66, 0xbe, 0xc1, 0x55, 0x0b, 0xbe, 0xae, 0x88, 0xf3, 0xbd,
  0xf0, 0xfa, 0x1e, 0xbe, 0xa1, 0xf3, 0x35, 0xbe, 0x08, 0xbc, 0x97, 0xbd,
  0x7a, 0x08, 0x59, 0xbe, 0xd4, 0x10, 0xa7, 0xbe, 0x77, 0x49, 0xd6, 0xbd,
  0x47, 0x94, 0xfa, 0xbd, 0xdc, 0x82, 0x51, 0xbe, 0x66, 0xce, 0xff, 0xff,
  0x04, 0x00, 0x00, 0x00, 0x80, 0x00, 0x00, 0x00, 0x5e, 0x75, 0x2f, 0xbf,
  0xda, 0x19, 0x08, 0xbf, 0xd8, 0xfc, 0x06, 0xbf, 0x33, 0x95, 0x13, 0xbf,
  0xd7, 0xc8, 0xd7, 0xbe, 0x92, 0xe9, 0xf2, 0xbe, 0x67, 0xc5, 0x27, 0xbf,
  0x9c, 0x97, 0x83, 0xbf, 0x63, 0xb7, 0x0d, 0xbf, 0xf8, 0x42, 0x25, 0xbf,
  0x3a, 0x62, 0xca, 0xbe, 0x88, 0x74, 0xb6, 0xbe, 0x5c, 0xd2, 0x26, 0xbf,
  0xed, 0x92, 0xde, 0xbe, 0x55, 0xf0, 0x3a, 0xbf, 0x15, 0x5c, 0xc3, 0xbe,
  0xc3, 0xfb, 0xb9, 0xbe, 0x75, 0xb2, 0xbe, 0xbe, 0x4d, 0xe2, 0x1d, 0xbf,
  0xc4, 0x7a, 0xbc, 0xbe, 0xde, 0x1f, 0x08, 0xbf, 0xca, 0x87, 0xbd, 0xbe,
  0xd6, 0x81, 0x39, 0xbf, 0x91, 0x45, 0x35, 0xbf, 0x78, 0xcc, 0x0d, 0xbf,
  0xf9, 0x88, 0x12, 0xbf, 0x95, 0x46, 0x4e, 0xbf, 0x29, 0x91, 0x29, 0xbf,
  0xec, 0xe2, 0x0c, 0xbf, 0x34, 0xf9, 0x0f, 0xbf, 0x4d, 0xe7, 0xfd, 0xbe,
  0x89, 0xea, 0x83, 0xbe, 0xf2, 0xce, 0xff, 0xff, 0x04, 0x00, 0x00, 0x00,
  0x80, 0x00, 0x00, 0x00, 0xb5, 0x0b, 0x1b, 0x40, 0x75, 0x93, 0x50, 0x40,
  0x6b, 0xb9, 0x59, 0x40, 0xb1, 0xde, 0x5a, 0x40, 0x24, 0x29, 0x97, 0x40,
  0xbf, 0xaf, 0x93, 0x40, 0x4a, 0xb2, 0x56, 0x40, 0xec, 0x0c, 0x44, 0x40,
  0x08, 0x37, 0xe8, 0x3f, 0x57, 0x3e, 0xad, 0x40, 0xa8, 0x26, 0x9f, 0x40,
  0x91, 0x45, 0x73, 0x40, 0xcf, 0x15, 0x64, 0x40, 0x1a, 0x21, 0x8e, 0x40,
  0x6d, 0xb5, 0x35, 0x40, 0xaa, 0xc0, 0x0d, 0x41, 0x79, 0xbb, 0xf1, 0x40,
  0x96, 0x77, 0xa8, 0x40, 0x29, 0x06, 0x4d, 0x40, 0x06, 0x8c, 0xca, 0x40,
  0x40, 0xa2, 0xc9, 0x40, 0xbc, 0x69, 0x9f, 0x40, 0xd6, 0x09, 0x37, 0x40,
  0xc4, 0x10, 0x5e, 0x40, 0x95, 0xae, 0x51, 0x40, 0xb6, 0x11, 0x7f, 0x40,
  0xef, 0x62, 0x58, 0x40, 0x26, 0x41, 0x62, 0x40, 0x76, 0x76, 0x82, 0x40,
  0x72, 0x12, 0x60, 0x40, 0x19, 0x61, 0x6b, 0x40, 0x4d, 0xbd, 0xb1, 0x40,
  0x7e, 0xcf, 0xff, 0xff, 0x04, 0x00, 0x00, 0x00, 0x40, 0x00, 0x00, 0x00,
  0x10, 0x4d, 0x30, 0xbf, 0x2e, 0x45, 0x02, 0xbf, 0x14, 0x5d, 0x12, 0xbf,
  0x4c, 0x96, 0x03, 0xbf, 0x80, 0x5a, 0x15, 0xbf, 0x95, 0xe7, 0x02, 0xbf,
  0x1f, 0xac, 0x0d, 0xbf, 0x85, 0x99, 0x22, 0xbf, 0x8b, 0xb8, 0x27, 0xbf,
  0x1e, 0xcb, 0x29, 0xbf, 0xd5, 0xb4, 0x13, 0xbf, 0x2e, 0x9f, 0xf4, 0xbe,
  0x65, 0x16, 0x09, 0xbf, 0x78, 0x44, 0x5d, 0xbf, 0xfe, 0x66, 0x46, 0xbf,
  0x66, 0x8f, 0x26, 0xbf, 0xca, 0xcf, 0xff, 0xff, 0x04, 0x00, 0x00, 0x00,
  0x40, 0x00, 0x00, 0x00, 0x9b, 0x34, 0x52, 0x40, 0xae, 0x66, 0x30, 0x40,
  0x9a, 0x68, 0x12, 0x40, 0x2e, 0x73, 0xd2, 0x3f, 0xd0, 0x49, 0xc5, 0x3f,
  0x8f, 0xe4, 0x18, 0x40, 0x70, 0x8d, 0x06, 0x40, 0x5d, 0xf5, 0x08, 0x40,
  0xd5, 0x15, 0xe1, 0x3f, 0xb1, 0xea, 0x25, 0x40, 0x2e, 0x9f, 0x22, 0x40,
  0x17, 0xe5, 0x43, 0x40, 0x50, 0xce, 0x10, 0x40, 0xb8, 0x2f, 0x3c, 0x40,
  0xe5, 0x5f, 0x09, 0x40, 0xdd, 0xa8, 0x1a, 0x40, 0x16, 0xd0, 0xff, 0xff,
  0x04, 0x00, 0x00, 0x00, 0x40, 0x00, 0x00, 0x00, 0xe8, 0x26, 0x05, 0xbf,
  0x33, 0x9c, 0xf0, 0xbe, 0xf5, 0x2b, 0x05, 0xbf, 0x5c, 0x37, 0x53, 0xbf,
  0xf6, 0x44, 0x7e, 0xbf, 0x41, 0xff, 0xaa, 0xbe, 0x12, 0x6b, 0x83, 0xbf,
  0x46, 0x18, 0x0a, 0xbf, 0x90, 0x19, 0x39, 0xbe, 0x4c, 0x2a, 0xbd, 0xbe,
  0x1f, 0xa4, 0xe2, 0xbe, 0xf8, 0x8a, 0x45, 0xbf, 0x2f, 0xef, 0x95, 0xbe,
  0xfb, 0xe9, 0x68, 0xbf, 0xd6, 0x8d, 0x68, 0xbf, 0x96, 0x28, 0x09, 0xbf,
  0x62, 0xd0, 0xff, 0xff, 0x04, 0x00, 0x00, 0x00, 0x40, 0x00, 0x00, 0x00,
  0x26, 0x5a, 0x1e, 0x40, 0x35, 0xd6, 0xe1, 0x3f, 0xff, 0x8e, 0xe9, 0x3f,
  0x50, 0x65, 0xff, 0x3f, 0x6e, 0x89, 0xcf, 0x3f, 0x12, 0xf7, 0xc8, 0x3f,
  0xb3, 0xc7, 0xed, 0x3f, 0xf5, 0x10, 0xfd, 0x3f, 0xbb, 0x79, 0xaa, 0x3f,
  0xf1, 0xfd, 0xae, 0x3f, 0x8e, 0xa1, 0xab, 0x3f, 0xaf, 0x0a, 0x38, 0x40,
  0x9f, 0xb9, 0xd6, 0x3f, 0x8e, 0xac, 0xc7, 0x3f, 0xbd, 0xbf, 0xe2, 0x3f,
  0xd3, 0x22, 0xa6, 0x3f, 0xae, 0xd0, 0xff, 0xff, 0x04, 0x00, 0x00, 0x00,
  0x04, 0x00, 0x00, 0x00, 0x01, 0x00, 0x00, 0x00, 0xbe, 0xd0, 0xff, 0xff,
  0x04, 0x00, 0x00, 0x00, 0x08, 0x00, 0x00, 0x00, 0x04, 0x00, 0x00, 0x00,
  0x04, 0x00, 0x00, 0x00, 0xd2, 0xd0, 0xff, 0xff, 0x04, 0x00, 0x00, 0x00,
  0x08, 0x00, 0x00, 0x00, 0x00, 0x00, 0x00, 0x00, 0x00, 0x00, 0x00, 0x00,
  0xe6, 0xd0, 0xff, 0xff, 0x04, 0x00, 0x00, 0x00, 0x04, 0x00, 0x00, 0x00,
  0x04, 0x00, 0x00, 0x00, 0xf6, 0xd0, 0xff, 0xff, 0x04, 0x00, 0x00, 0x00,
  0x04, 0x00, 0x00, 0x00, 0xfd, 0xff, 0xff, 0xff, 0x06, 0xd1, 0xff, 0xff,
  0x04, 0x00, 0x00, 0x00, 0x00, 0x04, 0x00, 0x00, 0xa0, 0xa9, 0xc3, 0x3d,
  0xf4, 0xac, 0x70, 0x3e, 0xef, 0xf5, 0x0b, 0xbf, 0xa5, 0x75, 0xba, 0x3e,
  0x15, 0x73, 0xa8, 0xbe, 0xe7, 0x7c, 0xe8, 0xbd, 0x0f, 0xbb, 0x3a, 0xbd,
  0x3b, 0xc5, 0x59, 0xbe, 0x74, 0x0b, 0x2b, 0x3e, 0xe4, 0x3e, 0x50, 0x3e,
  0x56, 0x2f, 0xaf, 0xbe, 0x70, 0x73, 0xd5, 0x3e, 0x85, 0x91, 0x10, 0x3e,
  0x6e, 0xc7, 0x03, 0x3e, 0x7a, 0xb6, 0xaa, 0x3e, 0x48, 0xea, 0xeb, 0xbe,
  0xab, 0xa7, 0x9d, 0xbe, 0x1b, 0xd6, 0xa3, 0xbe, 0x8e, 0x1e, 0x8b, 0x3e,
  0x0b, 0x7e, 0xe4, 0x3e, 0xb4, 0x69, 0x9f, 0x3e, 0x4f, 0x8d, 0xe2, 0xbe,
  0x0f, 0x2f, 0x6c, 0x3e, 0xda, 0x0a, 0x7a, 0x3e, 0x21, 0x9f, 0x92, 0xbe,
  0x2a, 0xd4, 0x43, 0x3d, 0x42, 0xa0, 0xe2, 0xbe, 0x27, 0x50, 0xc9, 0x3e,
  0xc8, 0x41, 0xff, 0xbe, 0xe0, 0xc0, 0xa6, 0x3e, 0xc1, 0x10, 0xd9, 0x3d,
  0x82, 0xd7, 0x3c, 0xbd, 0x39, 0x3c, 0xb8, 0x3e, 0xec, 0x42, 0xd1, 0x3e,
  0x46, 0x93, 0x4b, 0x3d, 0x17, 0xf2, 0x90, 0x3e, 0x38, 0x17, 0x27, 0x3d,
  0x28, 0xf7, 0xa8, 0x3d, 0xba, 0xe4, 0x4d, 0xbd, 0x4e, 0x58, 0x04, 0x3e,
  0x5d, 0x9f, 0x6e, 0xbe, 0x6d, 0xa2, 0xd7, 0x3c, 0xee, 0xe8, 0xfd, 0xbe,
  0x43, 0x79, 0x23, 0x3e, 0x6f, 0xf2, 0xb0, 0x3e, 0x38, 0x48, 0x1d, 0x3e,
  0xd4, 0x07, 0xa3, 0x3e, 0x7b, 0x6b, 0xc6, 0x3e, 0x4f, 0x25, 0x7f, 0x3e,
  0x45, 0x47, 0x9c, 0xbd, 0x80, 0x26, 0xaa, 0x3d, 0x65, 0x2f, 0x98, 0xbe,
  0xed, 0x0f, 0x8b, 0xbe, 0x5a, 0xec, 0x61, 0xbe, 0x3d, 0x9b, 0x15, 0x3e,
  0x94, 0xfe, 0xde, 0xbc, 0x06, 0x95, 0x99, 0xbe, 0x29, 0x8a, 0x32, 0x3d,
  0x71, 0xd5, 0xb3, 0xbd, 0x55, 0x61, 0x82, 0xbe, 0xa3, 0x8b, 0xf7, 0xbd,
  0x87, 0x6e, 0x8b, 0xbd, 0xf8, 0x19, 0x22, 0xbe, 0x47, 0x1c, 0xb5, 0xbe,
  0x87, 0xf3, 0x9b, 0x3e, 0x96, 0x51, 0xeb, 0x3d, 0xe2, 0x7c, 0xf1, 0xbd,
  0xbb, 0xe6, 0x06, 0xbf, 0xc2, 0x3d, 0x88, 0x3e, 0x0b, 0xdc, 0x22, 0xbe,
  0xb0, 0xf4, 0x95, 0xbe, 0x00, 0x07, 0xd4, 0xbd, 0x90, 0xba, 0x76, 0x3d,
  0xe5, 0x34, 0xde, 0x3d, 0x73, 0x0b, 0xb7, 0x3d, 0x40, 0xbd, 0x49, 0xbe,
  0xee, 0x3c, 0x25, 0x3e, 0xe8, 0x34, 0xc8, 0x3d, 0x79, 0x75, 0x75, 0x3d,
  0x99, 0x71, 0xc3, 0xbd, 0x3f, 0x5f, 0xa5, 0xbe, 0x41, 0xad, 0x10, 0xbf,
  0x57, 0xf6, 0x5b, 0x3d, 0xf5, 0xa1, 0x3d, 0xbe, 0x43, 0x60, 0xed, 0xbe,
  0x23, 0xaa, 0x34, 0x3e, 0xc8, 0x3c, 0xf1, 0x3e, 0x54, 0x93, 0x90, 0xbd,
  0xaf, 0x0a, 0xa2, 0xbe, 0x5e, 0xe5, 0x6d, 0xbe, 0x9a, 0xaf, 0x95, 0xbd,
  0x80, 0x53, 0xb9, 0xbb, 0x8c, 0x94, 0xd2, 0x3e, 0x8a, 0xe0, 0xe1, 0x3e,
  0x37, 0x4d, 0xd1, 0x3e, 0x78, 0xe9, 0xd1, 0x3e, 0xb3, 0xd4, 0x06, 0xbe,
  0xca, 0x2b, 0x40, 0xbe, 0x44, 0x83, 0x92, 0xbe, 0xd6, 0x31, 0x9e, 0xbe,
  0x73, 0x4d, 0x61, 0xbe, 0x6b, 0xae, 0xb5, 0x3d, 0x4e, 0x92, 0x5c, 0xbe,
  0xe6, 0x96, 0x24, 0x3e, 0x06, 0x34, 0xcf, 0xbe, 0xa9, 0x17, 0x60, 0xbd,
  0xc8, 0x61, 0xe4, 0x3e, 0x90, 0x71, 0x30, 0xbe, 0xe1, 0x8c, 0xeb, 0x3c,
  0x6f, 0x71, 0xbd, 0xbe, 0x27, 0x2c, 0xb2, 0xbe, 0x49, 0x47, 0xb9, 0x3e,
  0xfb, 0x6f, 0x73, 0x3e, 0xb5, 0x31, 0x24, 0x3e, 0xc8, 0xcf, 0xa4, 0xbe,
  0x39, 0xa8, 0x14, 0x3e, 0x1d, 0xc9, 0xa9, 0xbe, 0xf4, 0xc7, 0x0f, 0xbe,
  0x24, 0xaf, 0xcf, 0xbe, 0xa0, 0x4a, 0x91, 0x3e, 0xc5, 0x51, 0x94, 0x3e,
  0x1d, 0x0b, 0xec, 0xbd, 0xea, 0x6a, 0x63, 0x3e, 0x1b, 0xad, 0x76, 0xbe,
  0xe5, 0xec, 0x30, 0x3e, 0x83, 0x29, 0x71, 0x3e, 0x51, 0x79, 0x9b, 0x3c,
  0xc3, 0xb5, 0xb0, 0x3e, 0x9c, 0xeb, 0xb2, 0xbd, 0x09, 0xbe, 0xb2, 0xbd,
  0x79, 0x89, 0xda, 0xbe, 0x58, 0x62, 0xae, 0xbd, 0x3e, 0x24, 0xff, 0xbe,
  0xb4, 0x31, 0x4e, 0xbe, 0xe4, 0x3b, 0x0c, 0x3e, 0xb9, 0x84, 0x5c, 0xbe,
  0x3d, 0x98, 0x9c, 0xbe, 0xef, 0xf8, 0xf1, 0x3e, 0x08, 0xf0, 0x61, 0xbe,
  0x3d, 0x70, 0xb3, 0xbe, 0x94, 0x53, 0xc3, 0x3e, 0xaf, 0x23, 0x1c, 0xbe,
  0x2e, 0xc2, 0xfb, 0x3d, 0x47, 0xc6, 0xe6, 0x3e, 0x06, 0x1a, 0x9e, 0x3e,
  0xb5, 0x55, 0x34, 0x3e, 0x37, 0x9e, 0x94, 0x3e, 0x5f, 0x2a, 0xdf, 0xbe,
  0x11, 0x8d, 0xb3, 0x3e, 0x27, 0x7f, 0x47, 0xbd, 0xc4, 0x99, 0xff, 0x3e,
  0x42, 0x77, 0x5b, 0xbe, 0xca, 0x96, 0xa2, 0xbe, 0x75, 0xe7, 0xe9, 0xbd,
  0x78, 0x99, 0xe7, 0xbe, 0x6f, 0xed, 0x8a, 0xbd, 0x05, 0x62, 0x9e, 0x3c,
  0xa1, 0x30, 0xb5, 0xbe, 0x7b, 0xad, 0xbb, 0x3e, 0x14, 0x83, 0x42, 0x3e,
  0x32, 0xb0, 0x1b, 0xbf, 0x2a, 0xd2, 0xc9, 0x3c, 0x88, 0x3b, 0xf6, 0xbe,
  0xa8, 0x0d, 0xe2, 0xbd, 0x40, 0x86, 0x4a, 0xbd, 0x03, 0x70, 0xf0, 0x3d,
  0xee, 0xbe, 0x96, 0xbd, 0xf6, 0xb4, 0x4b, 0xbf, 0x2b, 0xf2, 0x23, 0xbe,
  0x6a, 0x61, 0xa3, 0xbe, 0xe7, 0x80, 0xa5, 0xbe, 0x2e, 0xa8, 0x2c, 0x3e,
  0x3d, 0xcd, 0xb3, 0x3e, 0x33, 0x68, 0x61, 0xbe, 0xc0, 0x83, 0x7a, 0xbe,
  0x6e, 0x4c, 0xa2, 0xbe, 0xfc, 0xa6, 0xff, 0x3d, 0x7f, 0xb6, 0xbc, 0x3e,
  0x76, 0xee, 0xe9, 0x3d, 0x2a, 0x7b, 0x71, 0x3e, 0x80, 0x07, 0x10, 0xbf,
  0x8d, 0x5f, 0x94, 0xbd, 0xcf, 0x88, 0x22, 0xbf, 0x1e, 0xf0, 0xda, 0x3e,
  0x9b, 0x97, 0x39, 0x3e, 0x39, 0xf5, 0xaa, 0xbe, 0x2a, 0xc5, 0xe9, 0x3e,
  0x2a, 0x3f, 0x95, 0xbe, 0x97, 0x98, 0xe6, 0xbe, 0x57, 0xab, 0x2c, 0x3e,
  0x9d, 0xd6, 0x4a, 0x3e, 0x70, 0x9a, 0x47, 0xbd, 0xbf, 0x45, 0x6a, 0x3e,
  0x88, 0x0f, 0xad, 0x3e, 0x83, 0x0d, 0x4c, 0x3e, 0xb6, 0xea, 0x2f, 0x3e,
  0x61, 0x62, 0xa1, 0xbe, 0x26, 0x10, 0xf5, 0xbe, 0xe6, 0x8d, 0x56, 0xbe,
  0xc1, 0x64, 0x57, 0x3d, 0xc7, 0x47, 0x48, 0xbe, 0x7c, 0xc2, 0x21, 0x3e,
  0x35, 0x67, 0x80, 0x3d, 0x23, 0x89, 0xa6, 0x3e, 0x83, 0xad, 0x8b, 0x3e,
  0xc5, 0x51, 0xd9, 0x3e, 0xa6, 0xd8, 0x1f, 0xbe, 0x11, 0x2f, 0x98, 0xbe,
  0x1c, 0x3b, 0x6f, 0xbd, 0x31, 0xd8, 0x9f, 0x3e, 0xc5, 0x67, 0xa9, 0xbe,
  0xf7, 0x7e, 0x34, 0xbe, 0x9a, 0x12, 0x9d, 0x3e, 0x47, 0x0c, 0xc6, 0x3e,
  0xa4, 0x47, 0xfc, 0xbd, 0x4a, 0x55, 0xdf, 0x3e, 0x93, 0xe6, 0x7f, 0xbe,
  0xf0, 0x37, 0x9e, 0xbe, 0xbd, 0x19, 0x94, 0xbe, 0x31, 0xf1, 0xd3, 0xbe,
  0x4a, 0x9a, 0x0b, 0xbe, 0x6e, 0x87, 0x96, 0xbe, 0x18, 0x9a, 0xc0, 0xbe,
  0x3d, 0x8b, 0x9e, 0x3e, 0xdb, 0x28, 0xda, 0x3d, 0x37, 0x80, 0x0e, 0xbe,
  0x0b, 0x98, 0xd9, 0xbd, 0x55, 0xa1, 0xbd, 0xbe, 0xd7, 0xa6, 0x18, 0xbe,
  0x42, 0x2a, 0xae, 0xbd, 0x84, 0xb6, 0x1d, 0x3d, 0x1c, 0x5a, 0x83, 0x3e,
  0xdd, 0xf0, 0xb9, 0x3e, 0xf3, 0x55, 0x0a, 0xbe, 0x50, 0xc3, 0xb9, 0x3e,
  0xa4, 0x66, 0xb8, 0xbe, 0x0b, 0x19, 0xf4, 0xbe, 0xe6, 0xb4, 0x2a, 0xbe,
  0xfa, 0xeb, 0x89, 0x3e, 0x83, 0x83, 0xf3, 0xbe, 0x91, 0x68, 0xc9, 0xbe,
  0x40, 0x64, 0x81, 0x3e, 0x2b, 0x6d, 0x4f, 0xbe, 0x7b, 0xf1, 0xdf, 0xbe,
  0xa4, 0x4d, 0xbe, 0xbd, 0x59, 0x3c, 0xc9, 0x3e, 0x1b, 0xf2, 0xa7, 0x3e,
  0x48, 0xda, 0x93, 0x3e, 0x98, 0x9a, 0x69, 0x3e, 0x9f, 0xc8, 0x86, 0x3e,
  0x87, 0x61, 0xb1, 0x3e, 0x59, 0xd9, 0xb5, 0x3e, 0x9b, 0x1a, 0x06, 0xbe,
  0xf4, 0x57, 0xb1, 0x3d, 0xba, 0xa2, 0x99, 0x3e, 0x38, 0x8c, 0xc6, 0xbe,
  0x12, 0xd5, 0xff, 0xff, 0x04, 0x00, 0x00, 0x00, 0x80, 0x04, 0x00, 0x00,
  0x25, 0x19, 0x61, 0xbe, 0x4d, 0xf4, 0x8c, 0xbe, 0xea, 0x1a, 0x88, 0x3e,
  0xd5, 0xe2, 0xd1, 0xbc, 0xb2, 0xd2, 0x10, 0x3e, 0xe1, 0x6b, 0xec, 0xbc,
  0x09, 0xf6, 0x37, 0x3b, 0xfd, 0x2a, 0x47, 0xbe, 0x68, 0x14, 0x95, 0xbd,
  0xba, 0xf4, 0x5c, 0x3d, 0x3d, 0x5c, 0x60, 0xbc, 0x5e, 0xab, 0x4e, 0x3e,
  0x47, 0xb1, 0x51, 0xbe, 0x8d, 0x64, 0x78, 0xbd, 0x46, 0x15, 0x61, 0xbd,
  0x4f, 0x94, 0x44, 0x3e, 0x28, 0x07, 0x89, 0xbe, 0xe6, 0xaf, 0xf3, 0xbd,
  0x4f, 0x6e, 0x78, 0xbe, 0x4e, 0xa7, 0x44, 0x3e, 0xd2, 0xee, 0x92, 0xbe,
  0xa1, 0x74, 0x7e, 0x3e, 0x22, 0xc0, 0xa6, 0xbe, 0x80, 0x80, 0x8e, 0xbe,
  0x2d, 0x99, 0x3c, 0x3e, 0x32, 0xd6, 0xa6, 0xbd, 0x4d, 0xa9, 0x37, 0x3e,
  0xf0, 0xb2, 0x9d, 0xbe, 0x8b, 0x48, 0x3e, 0x3e, 0xe9, 0x45, 0xee, 0xbd,
  0xfa, 0x5e, 0x13, 0xbe, 0x33, 0x05, 0x42, 0xbe, 0xdc, 0x65, 0x9f, 0xbd,
  0x78, 0xce, 0x70, 0x3e, 0x3a, 0xb4, 0x92, 0x3e, 0xf5, 0x89, 0x40, 0x3e,
  0xd3, 0x32, 0xaf, 0x3d, 0x49, 0x77, 0x68, 0x3e, 0xc0, 0x6e, 0xc3, 0xbd,
  0x4d, 0x8b, 0x16, 0x3e, 0xe3, 0x7a, 0xb9, 0xbd, 0xbd, 0xb7, 0xa3, 0x3d,
  0xcc, 0x14, 0x3e, 0x3e, 0x35, 0x9e, 0xa0, 0x3e, 0x6a, 0x22, 0x4b, 0x3e,
  0x8a, 0xa9, 0x70, 0x3d, 0x79, 0x1f, 0x22, 0xbe, 0xd1, 0xcf, 0x8a, 0xbe,
  0x06, 0x2f, 0x33, 0x3c, 0x08, 0x62, 0xbd, 0x3b, 0xe2, 0x08, 0x00, 0x3c,
  0x3c, 0x8e, 0x53, 0xbe, 0xd0, 0x81, 0x8c, 0x3e, 0x9c, 0x17, 0xdd, 0x3d,
  0x84, 0x13, 0x0e, 0x3e, 0x4a, 0x95, 0xe7, 0x3c, 0x33, 0xbf, 0x9e, 0xbe,
  0xbd, 0x18, 0x7d, 0xbc, 0xf4, 0xba, 0x56, 0x3e, 0xe3, 0xa0, 0x8d, 0x3c,
  0xc0, 0x6d, 0x74, 0x3e, 0x9d, 0x99, 0x35, 0x3e, 0xa8, 0xa5, 0xc7, 0x3d,
  0xb0, 0xae, 0xaa, 0x3d, 0x03, 0x2f, 0xcb, 0x3d, 0xa0, 0xe0, 0x2a, 0x3e,
  0x9b, 0xcb, 0x62, 0x3e, 0xf2, 0xdb, 0x23, 0x3e, 0x0d, 0xe9, 0x75, 0xbc,
  0x8f, 0xec, 0x92, 0x3e, 0x2f, 0x53, 0x70, 0x3e, 0x34, 0x7e, 0x6a, 0xbe,
  0xef, 0xf2, 0x68, 0x3e, 0xcf, 0x1d, 0x99, 0xbd, 0xd4, 0x08, 0x4c, 0x3e,
  0xa5, 0x85, 0x7e, 0x3e, 0x66, 0x61, 0x1e, 0x3e, 0x7e, 0x8d, 0x7b, 0x3e,
  0x6f, 0x29, 0x89, 0xbc, 0xba, 0x0b, 0x24, 0x3e, 0xa2, 0x7c, 0x43, 0x3e,
  0x89, 0xa3, 0x17, 0x3c, 0xf2, 0xe3, 0xbc, 0x3e, 0x7f, 0xa6, 0x2d, 0x3e,
  0xc6, 0x82, 0x3c, 0x3e, 0xca, 0xb6, 0xa4, 0x3c, 0x00, 0xca, 0x39, 0xbd,
  0x33, 0x8b, 0x9e, 0xbe, 0xa8, 0x95, 0x2a, 0x3e, 0x8e, 0x00, 0x76, 0xbc,
  0x9c, 0x84, 0x73, 0xbd, 0x5f, 0x69, 0x1e, 0x3e, 0x92, 0xd4, 0x60, 0x3e,
  0x69, 0x19, 0x9d, 0xbe, 0xbd, 0xc7, 0x3c, 0xbe, 0x52, 0x31, 0xb7, 0x3c,
  0x3d, 0x78, 0x57, 0x3c, 0x71, 0xec, 0x04, 0x3e, 0x6a, 0xe0, 0xbe, 0x3d,
  0xe0, 0xc5, 0x08, 0x3d, 0x50, 0x04, 0x2e, 0xbe, 0xee, 0x38, 0x87, 0xbd,
  0x67, 0x79, 0x96, 0x3d, 0x99, 0x8a, 0xa8, 0xbe, 0xb5, 0x9f, 0xbf, 0xbd,
  0x24, 0x42, 0x7f, 0xbd, 0x3e, 0xd5, 0x92, 0xbd, 0xe6, 0x09, 0x13, 0x3d,
  0x96, 0x7e, 0x90, 0xbe, 0x6c, 0xe9, 0x74, 0xbe, 0xc1, 0x77, 0x53, 0xbd,
  0x1b, 0x7c, 0x70, 0xbe, 0x6b, 0xfe, 0x41, 0x3e, 0x3e, 0x8d, 0x59, 0x3e,
  0x89, 0x4a, 0x35, 0x3e, 0x33, 0xfd, 0x98, 0x3e, 0xf6, 0x8b, 0x1f, 0xbe,
  0xca, 0xb7, 0xb0, 0x3d, 0x02, 0xec, 0x3f, 0x3e, 0x5e, 0xab, 0x18, 0x3e,
  0xd0, 0x87, 0x88, 0xbd, 0x5a, 0x0f, 0xc4, 0x3e, 0xb0, 0x21, 0x67, 0x3e,
  0x07, 0x19, 0x34, 0xbe, 0xf8, 0xa9, 0x23, 0x3d, 0x91, 0x77, 0xb7, 0xbc,
  0x0b, 0x15, 0xa9, 0x3d, 0x72, 0xb9, 0xfb, 0xbd, 0x8b, 0x56, 0x29, 0xbe,
  0x95, 0xd8, 0x30, 0xbc, 0x1c, 0x47, 0x9f, 0x3e, 0x7d, 0x5f, 0x8f, 0x3e,
  0x38, 0x7d, 0xe4, 0x3b, 0xa8, 0xbe, 0xa5, 0x3e, 0x45, 0x06, 0x1f, 0x3e,
  0xc2, 0xc1, 0x12, 0x3e, 0xc4, 0x88, 0x73, 0xbe, 0x64, 0x24, 0x86, 0xbe,
  0x8e, 0x14, 0xd4, 0xbd, 0x13, 0xb7, 0x84, 0x3e, 0xb9, 0xd0, 0x96, 0xbe,
  0x09, 0x01, 0x00, 0x3e, 0x22, 0xe2, 0xec, 0x3d, 0xc4, 0xcb, 0x17, 0x3e,
  0xda, 0x28, 0x43, 0xbe, 0x87, 0x93, 0x30, 0xbe, 0x61, 0x73, 0x05, 0xbe,
  0x9b, 0xec, 0x2c, 0x3e, 0xbc, 0x8f, 0x87, 0x3e, 0xfb, 0xfe, 0x87, 0xbe,
  0xcf, 0x3e, 0x3a, 0x3e, 0xdb, 0x3c, 0x9f, 0x3e, 0x26, 0xb2, 0xa1, 0xbe,
  0xbb, 0xd9, 0xa3, 0x3d, 0xc4, 0x77, 0x10, 0x3e, 0x75, 0xe3, 0x42, 0x3e,
  0x1e, 0xc4, 0xa8, 0xbe, 0x88, 0xd0, 0xd8, 0x3c, 0x72, 0x25, 0x74, 0xbe,
  0xb9, 0x7e, 0x3c, 0xbe, 0x83, 0x1c, 0x13, 0xbe, 0xfe, 0xe2, 0x63, 0xbe,
  0x23, 0xf7, 0x09, 0xbc, 0xb4, 0xae, 0x27, 0xbe, 0x03, 0xfc, 0x5e, 0x3d,
  0x83, 0xd6, 0xaa, 0xbe, 0x6a, 0xe5, 0x92, 0xbd, 0x0d, 0xcc, 0x03, 0x3e,
  0xd8, 0x04, 0x18, 0x3d, 0x13, 0xcc, 0x0e, 0x3e, 0x32, 0x4b, 0x89, 0xbe,
  0xe1, 0x8f, 0x07, 0x3e, 0x6f, 0xa2, 0x95, 0x3e, 0x17, 0xe4, 0x51, 0x3e,
  0xad, 0x65, 0x7c, 0x3e, 0x64, 0xb4, 0x7b, 0xbe, 0x1a, 0xde, 0xc8, 0xbb,
  0xdd, 0x6c, 0x51, 0xbd, 0x78, 0x4b, 0x23, 0xbe, 0x44, 0xb0, 0xec, 0x3d,
  0xde, 0x21, 0x9d, 0x3e, 0x22, 0x07, 0x8a, 0xbe, 0x34, 0xb7, 0x84, 0x3e,
  0x42, 0xb9, 0xfe, 0x3c, 0xf9, 0x5d, 0xbc, 0xbd, 0x88, 0x7b, 0x96, 0xba,
  0xef, 0x8f, 0x8a, 0xbe, 0x73, 0x7a, 0x52, 0x3d, 0x0b, 0x6d, 0xf7, 0xbd,
  0x4c, 0x2d, 0x96, 0xbe, 0x79, 0xa7, 0x80, 0x3e, 0xa2, 0xff, 0x34, 0x3e,
  0x2a, 0x6f, 0x28, 0xbe, 0x8b, 0x34, 0x68, 0xbe, 0x2e, 0x24, 0x0f, 0x3e,
  0x6b, 0x59, 0x1d, 0x3e, 0x25, 0xf6, 0xb7, 0xbd, 0xfa, 0xd4, 0x92, 0x3e,
  0xb3, 0x87, 0x3d, 0x3e, 0x39, 0xb9, 0x13, 0xbe, 0xf6, 0xff, 0x56, 0xbe,
  0x7a, 0xea, 0x5a, 0x3e, 0x31, 0xce, 0x80, 0x3e, 0x34, 0x0d, 0x41, 0xbe,
  0xdd, 0x93, 0x8e, 0xbd, 0xff, 0xe8, 0x13, 0x3e, 0x19, 0x78, 0x82, 0x3e,
  0x82, 0x55, 0x3b, 0xbe, 0x08, 0x4d, 0xf9, 0x3d, 0xed, 0x6d, 0x02, 0x3c,
  0xe5, 0x77, 0x55, 0xbe, 0x47, 0x65, 0xb9, 0xbd, 0x02, 0x47, 0xa7, 0xbd,
  0x81, 0x12, 0x90, 0x3e, 0xc0, 0x5c, 0x8e, 0xbd, 0x40, 0x6e, 0x0f, 0x3e,
  0xf5, 0xdc, 0x87, 0xbe, 0x3a, 0xde, 0x70, 0xbe, 0x75, 0x1b, 0x24, 0x3e,
  0x2f, 0xa9, 0x04, 0x3d, 0xcb, 0xc3, 0x8e, 0xbe, 0x06, 0xe3, 0x29, 0x3d,
  0xd5, 0xe3, 0x27, 0xbe, 0xe6, 0x43, 0x50, 0xbe, 0xb0, 0xf7, 0x9d, 0xbd,
  0xf2, 0x06, 0x8b, 0x3e, 0xc0, 0x88, 0x84, 0x3e, 0x5e, 0x72, 0x70, 0x3e,
  0x76, 0x6d, 0x6b, 0x3e, 0xef, 0x05, 0x76, 0xbe, 0x65, 0x0c, 0x91, 0xbd,
  0xf0, 0x4d, 0xa4, 0x3e, 0xae, 0x5e, 0x1f, 0xbe, 0x38, 0x8a, 0x19, 0x3b,
  0xa9, 0xb3, 0x39, 0xbe, 0x94, 0xcb, 0x93, 0xbe, 0x1c, 0x94, 0x0b, 0xbc,
  0x02, 0x23, 0x49, 0x3e, 0xb7, 0xc6, 0x13, 0x3d, 0xe7, 0x8d, 0x2a, 0x3d,
  0x2a, 0x82, 0x67, 0xbe, 0xc0, 0x1e, 0x3f, 0xbe, 0x97, 0x56, 0xe4, 0x3d,
  0xcb, 0xb0, 0xce, 0xbc, 0x05, 0x8b, 0xf0, 0xbd, 0xa4, 0x28, 0x19, 0xbc,
  0x8c, 0x66, 0x55, 0x3c, 0x62, 0xa4, 0x84, 0xbe, 0xee, 0x06, 0x89, 0xbe,
  0x61, 0xf7, 0xb9, 0x3d, 0x86, 0x61, 0x44, 0xbe, 0x16, 0xa4, 0xcc, 0x3d,
  0xec, 0xa0, 0x89, 0xbe, 0x46, 0x54, 0x5e, 0x3d, 0xd7, 0xd6, 0x73, 0xbe,
  0x86, 0x6b, 0x9a, 0x3c, 0x0f, 0x76, 0xc2, 0x3c, 0x53, 0x1f, 0xe3, 0xbd,
  0xca, 0x14, 0x30, 0x3d, 0x2c, 0xaf, 0x96, 0xbe, 0x5e, 0x97, 0x7b, 0xbd,
  0x05, 0x6d, 0xad, 0x3e, 0x44, 0x39, 0x08, 0x3e, 0xd8, 0xde, 0x37, 0xbe,
  0xaa, 0x96, 0xc4, 0xbd, 0xd8, 0xf2, 0x1c, 0xbe, 0x66, 0x57, 0x3b, 0xbe,
  0x29, 0xa6, 0x20, 0x3e, 0x1c, 0xce, 0xc8, 0x3c, 0x8b, 0xbe, 0xbb, 0xbd,
  0x42, 0x18, 0xa9, 0x3e, 0x38, 0x53, 0x57, 0x3c, 0xa6, 0x0a, 0x11, 0x3e,
  0xc6, 0x83, 0xdf, 0xbd, 0xee, 0x64, 0x5d, 0x3e, 0xfd, 0x5d, 0x11, 0xbe,
  0x10, 0xe5, 0xd6, 0x3d, 0x48, 0x5a, 0x8c, 0x3d, 0xe4, 0xa4, 0x49, 0xbe,
  0xd3, 0x32, 0x3f, 0x3d, 0xbe, 0x49, 0x90, 0xbe, 0x6a, 0x5b, 0x42, 0x3e,
  0x95, 0x95, 0x5c, 0x3e, 0xa6, 0xea, 0xd7, 0xbd, 0xf6, 0xac, 0x00, 0xbe,
  0xe7, 0xec, 0x0f, 0x3e, 0x7b, 0x9c, 0x1b, 0x3e, 0xa9, 0x81, 0x48, 0x3e,
  0x9e, 0xd9, 0xff, 0xff, 0x04, 0x00, 0x00, 0x00, 0x00, 0x0c, 0x00, 0x00,
  0xa0, 0xe5, 0x01, 0x3e, 0xa5, 0x31, 0x3e, 0xbe, 0x35, 0x97, 0xce, 0x3b,
  0x1a, 0x96, 0x92, 0xbd, 0xa0, 0xb9, 0x81, 0xbe, 0x7d, 0xe1, 0x16, 0xbe,
  0x6d, 0xc0, 0x85, 0xbe, 0x16, 0x32, 0xd5, 0xbd, 0xf8, 0xa1, 0x42, 0xbe,
  0x81, 0x54, 0xb0, 0xbd, 0xf9, 0xa9, 0x3d, 0xbd, 0x26, 0xa5, 0xb4, 0x3d,
  0xd0, 0xfd, 0x03, 0xbe, 0xb6, 0x5b, 0x09, 0x3e, 0x66, 0x39, 0xca, 0x3d,
  0x5a, 0x6a, 0x83, 0xbd, 0x08, 0x42, 0x32, 0xbc, 0x3f, 0x62, 0xd7, 0x3d,
  0xb2, 0xc2, 0x4d, 0xbd, 0x19, 0x8c, 0x42, 0xbe, 0xa5, 0x27, 0x31, 0x3e,
  0xa8, 0xee, 0x26, 0xbe, 0xf2, 0xe9, 0x36, 0x3e, 0xbf, 0x76, 0x9a, 0x3d,
  0xc0, 0x57, 0x6f, 0x3d, 0x10, 0x5e, 0x8c, 0xbd, 0xa6, 0x9b, 0x2c, 0xbe,
  0x07, 0x6f, 0x7b, 0x3e, 0x08, 0x47, 0x51, 0x3e, 0x41, 0x0e, 0x38, 0xbe,
  0xc9, 0x98, 0x44, 0xbe, 0xb6, 0xfa, 0x10, 0x3c, 0xb1, 0xb7, 0xfb, 0x3d,
  0x94, 0x1d, 0x71, 0xbe, 0xbc, 0xdd, 0x1c, 0xbe, 0x1e, 0xdd, 0x03, 0xbe,
  0xa4, 0x95, 0x8a, 0x3d, 0xdb, 0x12, 0xa8, 0xbd, 0xe7, 0x88, 0x0e, 0x3d,
  0xda, 0x15, 0x6e, 0x3b, 0xfc, 0x42, 0x12, 0xbe, 0xa3, 0x87, 0xc8, 0x3d,
  0x3c, 0x8e, 0x15, 0x3e, 0x8a, 0x31, 0x86, 0x3e, 0x12, 0x7e, 0x3a, 0xbe,
  0xe0, 0x8e, 0xb6, 0xbd, 0x07, 0x72, 0x41, 0x3d, 0x4a, 0x49, 0x13, 0xbe,
  0xd5, 0xa9, 0x92, 0x3d, 0x0d, 0x59, 0x10, 0xbe, 0x5f, 0x33, 0x3a, 0xbe,
  0x5b, 0x70, 0xe3, 0x3d, 0xf1, 0xcb, 0x52, 0xbe, 0x7c, 0x73, 0x3a, 0x3e,
  0x8b, 0x3d, 0x7e, 0x3e, 0xd5, 0xf7, 0xe5, 0x3d, 0x6e, 0xd9, 0x69, 0xbe,
  0x1b, 0x27, 0x2a, 0xbc, 0x0e, 0xb5, 0xf5, 0xbd, 0x14, 0x52, 0xa7, 0xbd,
  0xbc, 0xa8, 0xbe, 0x3d, 0xb3, 0xe5, 0x1c, 0x3c, 0x1e, 0x5d, 0x5a, 0xbd,
  0x9e, 0xfa, 0x37, 0x3e, 0x05, 0xcf, 0x07, 0xbe, 0x2e, 0xe8, 0x17, 0xbe,
  0x0f, 0xbb, 0xab, 0xbd, 0x92, 0x4b, 0x96, 0xbc, 0x67, 0x31, 0x5c, 0x3d,
  0x1e, 0x29, 0x4a, 0x3e, 0x06, 0x52, 0xb2, 0xbd, 0xf9, 0x59, 0x7e, 0xbe,
  0x47, 0x9b, 0x10, 0xbd, 0x59, 0x76, 0x22, 0x3e, 0x9c, 0xdd, 0xd6, 0xbd,
  0xb8, 0xf6, 0x82, 0x3e, 0xaf, 0xb8, 0x5f, 0xbe, 0xb6, 0xe0, 0x5a, 0x3e,
  0x71, 0x29, 0x33, 0x3e, 0xce, 0xeb, 0xb0, 0x3d, 0xfd, 0x18, 0x3e, 0x3e,
  0xf5, 0xc2, 0xf3, 0xbd, 0x3c, 0x21, 0x8f, 0x3e, 0xbb, 0x72, 0x6e, 0xbd,
  0x19, 0xcf, 0x7f, 0x3e, 0x33, 0x0e, 0xdd, 0x3a, 0x98, 0x6e, 0x27, 0x3e,
  0xd6, 0x60, 0x57, 0xbd, 0x58, 0xea, 0x0a, 0x3c, 0xcc, 0xc3, 0x87, 0x3e,
  0x68, 0x83, 0x2e, 0x3e, 0x40, 0x28, 0xed, 0x3c, 0xdd, 0x97, 0x69, 0xbe,
  0x45, 0x9b, 0xa9, 0xbc, 0x9e, 0x11, 0xdb, 0xbd, 0x8b, 0x33, 0x87, 0xbd,
  0x39, 0x28, 0xca, 0xbd, 0xbd, 0x27, 0x57, 0xbe, 0x80, 0x64, 0x92, 0xbd,
  0x46, 0x19, 0xf5, 0x3c, 0x5e, 0x57, 0x3d, 0xbe, 0x3b, 0xf8, 0xee, 0x3d,
  0xca, 0x82, 0xe9, 0xbd, 0xe7, 0xb5, 0x87, 0x3e, 0xca, 0x74, 0x6d, 0xbe,
  0x75, 0x3d, 0x79, 0x3d, 0x26, 0xe7, 0xa9, 0xbd, 0x51, 0xfc, 0x4d, 0x3e,
  0x17, 0xc5, 0x6c, 0x3e, 0xad, 0xbe, 0x25, 0xbd, 0x49, 0x2b, 0x19, 0x3e,
  0x61, 0xd3, 0x0b, 0x3e, 0x61, 0xcc, 0xc3, 0xbd, 0xcb, 0xf9, 0x23, 0xbd,
  0x0a, 0xab, 0x52, 0x3d, 0x68, 0xdc, 0x91, 0x3e, 0x5d, 0x5f, 0x47, 0x3d,
  0x1e, 0xf1, 0x19, 0x3e, 0x40, 0x4d, 0x5e, 0x3d, 0x18, 0x93, 0xe1, 0xbd,
  0x65, 0xf7, 0x8c, 0xbe, 0x8a, 0x63, 0x1f, 0xbe, 0xbb, 0xe5, 0x5a, 0xbe,
  0x79, 0x4c, 0x3f, 0xbd, 0x81, 0xf2, 0x87, 0x3d, 0xb8, 0xc2, 0x23, 0xbd,
  0xbd, 0x74, 0xaa, 0xbd, 0x14, 0xbc, 0xd1, 0x3d, 0x97, 0x29, 0xc2, 0xbd,
  0x4a, 0x2a, 0xd8, 0x3d, 0x09, 0x27, 0xe4, 0x3d, 0x3a, 0xd2, 0x33, 0xbd,
  0xc6, 0xb2, 0x25, 0x3e, 0x53, 0xd7, 0x6f, 0x3d, 0x54, 0x14, 0x0f, 0xbe,
  0x18, 0x69, 0x15, 0xbe, 0x4f, 0x6e, 0x5b, 0x3e, 0x32, 0xbf, 0xd8, 0x3a,
  0x47, 0x2f, 0x86, 0xbe, 0x17, 0x41, 0x96, 0xbd, 0x49, 0x0f, 0xca, 0xbb,
  0xb9, 0xfc, 0x90, 0x3d, 0xeb, 0x94, 0x88, 0xbe, 0x79, 0x43, 0xf7, 0xbd,
  0xa5, 0x97, 0xa6, 0x3d, 0x6e, 0xea, 0x44, 0xbe, 0x8f, 0xd1, 0x8a, 0xbe,
  0x79, 0x58, 0x36, 0xbd, 0xd1, 0x11, 0x24, 0xbd, 0x53, 0x6a, 0x3a, 0xbe,
  0x0e, 0x09, 0x85, 0xbe, 0xfe, 0x68, 0xea, 0xbc, 0x87, 0xa1, 0x03, 0x3d,
  0x16, 0xec, 0x27, 0x3e, 0xab, 0xd7, 0x55, 0x3d, 0x8c, 0x5e, 0xc9, 0xbd,
  0x5e, 0x14, 0x89, 0xbe, 0x53, 0x8b, 0xd2, 0x3d, 0x74, 0x93, 0x0f, 0xbe,
  0xe1, 0xa2, 0xea, 0x3d, 0xc5, 0x7d, 0x87, 0xbd, 0xb9, 0xad, 0xa1, 0xbd,
  0xff, 0x78, 0x40, 0xbe, 0xe8, 0x28, 0x04, 0x3d, 0xa8, 0xac, 0x2e, 0xbe,
  0xc8, 0xa9, 0x9c, 0x3d, 0xdb, 0xfe, 0xf8, 0x3d, 0x75, 0x10, 0xc2, 0xbd,
  0x52, 0xd0, 0x1b, 0xbe, 0xca, 0xf5, 0x86, 0x3d, 0xb3, 0x74, 0x16, 0xbd,
  0x3a, 0x66, 0x4b, 0xbe, 0x95, 0x08, 0x1a, 0xbc, 0x2a, 0xfe, 0x5a, 0xbe,
  0x88, 0x43, 0xbe, 0x3d, 0xdf, 0x05, 0x78, 0x3e, 0x05, 0x43, 0x71, 0x3b,
  0xc5, 0x22, 0x03, 0x3e, 0x87, 0x11, 0x86, 0xbe, 0xf3, 0xde, 0x81, 0x3e,
  0x25, 0x7b, 0xad, 0x3c, 0x43, 0x50, 0x40, 0x3b, 0x91, 0x65, 0x73, 0x3d,
  0x64, 0x87, 0x55, 0x3d, 0xb2, 0x00, 0x26, 0x3e, 0xab, 0x90, 0xe7, 0xbc,
  0xa4, 0xbc, 0x87, 0xbd, 0xdb, 0xe5, 0x59, 0xbd, 0x63, 0x5e, 0x05, 0x3e,
  0xc2, 0x2f, 0x9b, 0x3e, 0xab, 0x58, 0x44, 0xbb, 0x7f, 0xa8, 0xa4, 0xbd,
  0xef, 0xca, 0xc3, 0xbd, 0xcf, 0x47, 0x66, 0xbe, 0xa6, 0x7c, 0x1e, 0xbd,
  0x91, 0x5a, 0x1b, 0xbe, 0x87, 0xe6, 0x34, 0x3e, 0xec, 0xe0, 0x19, 0xb9,
  0x9a, 0xdb, 0x0f, 0x3e, 0xa2, 0x11, 0x90, 0xbe, 0x1c, 0x5d, 0x85, 0x3b,
  0xe4, 0x4f, 0xc5, 0x3d, 0x95, 0xb3, 0x52, 0xbc, 0x14, 0xb3, 0x2b, 0xbe,
  0xf3, 0xb5, 0x41, 0x3e, 0xb4, 0xfc, 0xe9, 0xbd, 0xdc, 0x92, 0x83, 0xbe,
  0xb7, 0xf3, 0x8e, 0xbc, 0x16, 0xa6, 0xdd, 0x3b, 0xde, 0x3d, 0x1d, 0x3e,
  0xf6, 0xac, 0xd5, 0xbd, 0xc5, 0x0d, 0x5a, 0xbe, 0x22, 0x0b, 0x53, 0xbe,
  0x22, 0xf6, 0x02, 0x3e, 0xd4, 0x69, 0x08, 0xbe, 0xf8, 0xd2, 0x94, 0xbe,
  0xec, 0x67, 0x9a, 0x3a, 0xd1, 0x09, 0x84, 0xbd, 0xfb, 0xeb, 0x29, 0xbd,
  0xde, 0x34, 0xb9, 0x3d, 0x95, 0x4c, 0x64, 0xbe, 0x23, 0xe3, 0x34, 0x3e,
  0x40, 0xa3, 0x82, 0xbe, 0x43, 0x30, 0x3f, 0xbd, 0x0d, 0xea, 0xc4, 0xbd,
  0xc0, 0x25, 0xef, 0xbd, 0xc9, 0xb6, 0x14, 0xbe, 0x8b, 0xa0, 0x46, 0xbe,
  0x89, 0xcc, 0x15, 0x3b, 0x84, 0x73, 0x17, 0xbe, 0x31, 0xc0, 0x3d, 0x3e,
  0xc5, 0x6d, 0xa8, 0x3c, 0xe6, 0xb0, 0x1b, 0x3d, 0x95, 0x57, 0xda, 0xbd,
  0x77, 0x83, 0xe5, 0xbc, 0xdb, 0x3f, 0x51, 0xbe, 0x63, 0x50, 0xd6, 0xbd,
  0xfe, 0x65, 0xe4, 0x3d, 0xa5, 0x4c, 0x29, 0xbe, 0x51, 0xe1, 0x99, 0x3e,
  0x71, 0xab, 0x0b, 0xbe, 0x90, 0x6e, 0xab, 0xbe, 0xfb, 0x0f, 0xee, 0xbc,
  0x64, 0xec, 0x57, 0x3d, 0x6a, 0xb8, 0x2d, 0xbe, 0x91, 0x5d, 0x58, 0x3e,
  0x2d, 0xf4, 0xc1, 0xbd, 0xf6, 0x94, 0xf9, 0xbc, 0xf2, 0x0d, 0x8f, 0x3c,
  0x70, 0x4b, 0xb8, 0xbd, 0x27, 0xe2, 0x7b, 0xbe, 0x34, 0xb2, 0xd1, 0xbd,
  0x9e, 0x07, 0x86, 0xbe, 0xcd, 0xb0, 0xb3, 0x3c, 0xdd, 0xee, 0x80, 0x3d,
  0x99, 0xfe, 0x07, 0x3d, 0x1a, 0x8c, 0x93, 0xbe, 0xa2, 0x9c, 0x20, 0x3d,
  0xcb, 0xb4, 0x06, 0x3e, 0x5d, 0xf5, 0x84, 0x3e, 0xb2, 0xff, 0x1c, 0xbe,
  0x86, 0x77, 0x1e, 0x3d, 0x1b, 0xc2, 0x82, 0xbd, 0x4b, 0xbe, 0x14, 0xbd,
  0x39, 0x94, 0x5f, 0x3d, 0xd2, 0xf6, 0x7e, 0x3e, 0x5e, 0xea, 0x61, 0x3e,
  0x3d, 0xd3, 0x95, 0x3c, 0xe9, 0xf2, 0x5d, 0x3d, 0x95, 0x82, 0x8d, 0xbe,
  0xe7, 0x7f, 0x12, 0x3e, 0x27, 0x9a, 0x7a, 0xbe, 0x1b, 0xbb, 0x9a, 0xbe,
  0x73, 0x0b, 0xa2, 0x3a, 0x9e, 0x1e, 0x30, 0x3d, 0x24, 0x24, 0x37, 0xbd,
  0x14, 0x57, 0xfc, 0xbd, 0xf9, 0x62, 0x73, 0x3e, 0x29, 0x86, 0x0f, 0x3e,
  0xad, 0xcb, 0x48, 0x3d, 0xb2, 0x4a, 0xa0, 0xbd, 0x9f, 0xa7, 0x6b, 0x3d,
  0x02, 0x5d, 0x00, 0xbd, 0x62, 0xf7, 0x28, 0xbd, 0x1e, 0x35, 0xd6, 0x3c,
  0x82, 0xe4, 0x96, 0xbd, 0xb1, 0xb6, 0x5b, 0x3d, 0x03, 0xb0, 0x1b, 0x3e,
  0xcf, 0xe1, 0x5d, 0x3c, 0xbd, 0x53, 0x02, 0x3c, 0x91, 0xb2, 0x2f, 0x3d,
  0xa1, 0xe3, 0x5a, 0xbe, 0xc2, 0xcf, 0x0a, 0x3e, 0xb8, 0x46, 0xae, 0xbd,
  0x66, 0x29, 0x8d, 0xbd, 0x4b, 0x2b, 0x6f, 0xbe, 0x81, 0x37, 0x82, 0x3d,
  0x1b, 0xaf, 0xfb, 0xbd, 0x30, 0x11, 0x4a, 0xbc, 0x56, 0x64, 0x93, 0xbe,
  0x10, 0x71, 0x8a, 0xbb, 0xd1, 0x18, 0x3a, 0x3e, 0x07, 0x5f, 0x36, 0xbe,
  0x66, 0xf1, 0xf6, 0x3d, 0x89, 0xb3, 0xd1, 0xbb, 0x0a, 0x6c, 0x79, 0xbe,
  0x8d, 0x8e, 0x37, 0xbe, 0xad, 0xf0, 0xc8, 0x3c, 0x5e, 0x69, 0xf8, 0x3d,
  0xe9, 0x39, 0x64, 0xbe, 0x63, 0xc1, 0x8d, 0xbe, 0xcd, 0x06, 0x46, 0x3d,
  0x10, 0x39, 0x1a, 0xbe, 0xea, 0x78, 0x3e, 0x3e, 0xfe, 0x34, 0xd0, 0x3d,
  0xe1, 0x45, 0x08, 0x3e, 0x74, 0x00, 0xc0, 0xbd, 0x4d, 0xe8, 0xe4, 0x3d,
  0x4e, 0xf8, 0xf5, 0xbd, 0xdc, 0x37, 0xd7, 0x3c, 0x48, 0x22, 0xb9, 0xbc,
  0x57, 0xd2, 0x51, 0xbe, 0x85, 0x0c, 0x5b, 0xbe, 0xd2, 0x68, 0x81, 0xbd,
  0x7e, 0xb6, 0xbd, 0x3d, 0xcb, 0x27, 0xf5, 0xbc, 0xbb, 0xe3, 0x92, 0xbe,
  0xc0, 0x0a, 0xf0, 0xbc, 0xff, 0x2a, 0x69, 0x3e, 0x33, 0x8a, 0x8f, 0xbd,
  0xde, 0xe8, 0x41, 0xbe, 0x61, 0xd5, 0xc6, 0x3a, 0xde, 0xcb, 0x14, 0x3e,
  0xbb, 0x4c, 0x46, 0xbe, 0xfe, 0x97, 0xc5, 0xbd, 0xa4, 0xfd, 0x64, 0x3d,
  0xfd, 0x91, 0x91, 0xbc, 0xa0, 0x4d, 0x0e, 0xbd, 0xa6, 0xa8, 0x24, 0x3e,
  0xb7, 0x78, 0xda, 0x3d, 0xb3, 0x0d, 0x87, 0x3e, 0xdc, 0x95, 0xb3, 0x3b,
  0xd7, 0xfe, 0x82, 0xbe, 0x95, 0x42, 0x53, 0xbe, 0x09, 0x3e, 0x19, 0x3e,
  0xce, 0xb9, 0x0d, 0xbc, 0xfe, 0x68, 0x35, 0x3e, 0x96, 0xb4, 0x62, 0x3e,
  0xd0, 0xa1, 0x5f, 0x3e, 0xa1, 0xfb, 0x29, 0xbe, 0x61, 0xd7, 0x6e, 0xbd,
  0x7c, 0xfb, 0x28, 0x3d, 0x7d, 0xcc, 0x36, 0x3c, 0x35, 0x27, 0x16, 0xbc,
  0x3a, 0xc9, 0x58, 0x3e, 0x34, 0xfb, 0x9c, 0xbd, 0x08, 0x02, 0x20, 0xbd,
  0x37, 0x2b, 0x09, 0xbd, 0xab, 0x09, 0x14, 0x3e, 0xa1, 0xbc, 0x36, 0x3e,
  0xa3, 0xe6, 0x17, 0x3e, 0xe5, 0x92, 0x88, 0x3d, 0x8d, 0xd4, 0x4c, 0xbe,
  0xf0, 0xec, 0x65, 0x3e, 0xa3, 0xd1, 0xfa, 0xbd, 0x02, 0x5a, 0x9d, 0x3d,
  0xf7, 0x56, 0x1a, 0x3d, 0x20, 0x41, 0xe2, 0x3d, 0x76, 0xea, 0x56, 0xbe,
  0x58, 0x4d, 0xfe, 0x3c, 0x8b, 0x1c, 0x02, 0xbd, 0x5b, 0xfe, 0x76, 0xbe,
  0x9a, 0xce, 0x56, 0xbe, 0x14, 0x46, 0x76, 0xbd, 0xce, 0xc5, 0x1e, 0xbe,
  0xee, 0x31, 0xd9, 0x3d, 0x8e, 0x90, 0x6e, 0xbe, 0x9e, 0xe0, 0x36, 0x3e,
  0x01, 0xc0, 0x7d, 0xbe, 0x4e, 0x2b, 0x0e, 0xbe, 0x34, 0xb4, 0x6b, 0x3d,
  0x97, 0x7c, 0x51, 0x3e, 0xe7, 0x15, 0x2f, 0x3d, 0xdf, 0x4e, 0xe2, 0x3d,
  0x3c, 0x4d, 0x2a, 0x3e, 0x3e, 0xc3, 0xad, 0x3c, 0x86, 0xbc, 0x6a, 0xbe,
  0xdb, 0x5c, 0x86, 0x3d, 0x26, 0x70, 0x66, 0x3e, 0xf1, 0x59, 0x0e, 0x3c,
  0x32, 0xe1, 0x29, 0xbe, 0x37, 0x5d, 0x50, 0x3e, 0x10, 0x2e, 0xc0, 0x3b,
  0x67, 0x45, 0x69, 0x3e, 0xec, 0xab, 0x6a, 0xbc, 0xc2, 0x3c, 0x7b, 0x3e,
  0xcc, 0x29, 0xde, 0x3d, 0x33, 0x41, 0xf6, 0xbc, 0x24, 0x52, 0x4e, 0xbe,
  0x91, 0xbe, 0x4e, 0x3d, 0xe8, 0x29, 0x84, 0xbe, 0x1d, 0xd6, 0x0e, 0x3e,
  0xb1, 0xa6, 0xfb, 0xbb, 0xda, 0x38, 0x36, 0x3d, 0x63, 0xed, 0x88, 0xbd,
  0x94, 0x66, 0x5a, 0x3e, 0x5f, 0x75, 0x16, 0x3d, 0x26, 0x57, 0x4d, 0x3e,
  0x1b, 0x6b, 0xa7, 0xbd, 0x5d, 0x25, 0x9c, 0x3e, 0x2a, 0x19, 0x68, 0x3e,
  0x0b, 0x62, 0x91, 0xbc, 0xcb, 0xb0, 0x20, 0xbe, 0x04, 0x74, 0xb1, 0xbd,
  0xad, 0x21, 0x51, 0x3e, 0x71, 0x34, 0x59, 0xbe, 0x0b, 0x44, 0x38, 0xbd,
  0xbc, 0x51, 0xe7, 0x3b, 0x05, 0xa6, 0xef, 0x3c, 0x3e, 0x5f, 0x29, 0x3d,
  0x3f, 0xd2, 0x41, 0xbd, 0xe9, 0xd7, 0x45, 0xbe, 0x57, 0xe3, 0x64, 0xbd,
  0x9b, 0x10, 0x41, 0xbe, 0x43, 0x23, 0xe3, 0x3d, 0xec, 0x13, 0x2c, 0x3d,
  0x4e, 0x82, 0x61, 0xbd, 0xd0, 0xba, 0x26, 0x3e, 0xd6, 0x22, 0x66, 0x3d,
  0x64, 0x08, 0x69, 0x3c, 0x38, 0x73, 0xeb, 0xbd, 0x0f, 0x96, 0x10, 0x3e,
  0x28, 0x36, 0x2e, 0x3e, 0xd3, 0x2c, 0xf5, 0xbd, 0xd8, 0x42, 0x63, 0xbe,
  0x8a, 0xbe, 0x43, 0xbe, 0xc2, 0xe6, 0x14, 0x3d, 0x05, 0x55, 0xa2, 0xbc,
  0xfe, 0xb4, 0x50, 0xbc, 0x74, 0x49, 0x9e, 0xbd, 0x8d, 0xd3, 0xcf, 0x3b,
  0xca, 0xa0, 0x2a, 0xbe, 0x5b, 0xe4, 0x10, 0xbe, 0x5e, 0x08, 0xc4, 0xbd,
  0x74, 0x41, 0x62, 0x3e, 0x8e, 0xb5, 0xb2, 0xbd, 0x65, 0x28, 0xde, 0x3d,
  0x8e, 0xb5, 0x85, 0x3e, 0x8b, 0xd6, 0x61, 0x3e, 0xd4, 0x6b, 0xc2, 0x3d,
  0xdd, 0x11, 0xe6, 0x3d, 0x42, 0x61, 0x61, 0xbe, 0x3c, 0x60, 0x5a, 0xbe,
  0xf7, 0x67, 0x48, 0xbd, 0x95, 0x60, 0x8e, 0x3c, 0xf6, 0x3a, 0x8e, 0x3d,
  0xea, 0xf5, 0x4a, 0x3e, 0xd7, 0x01, 0x28, 0xbe, 0xb0, 0x7b, 0xe2, 0xbc,
  0x43, 0x9a, 0x56, 0x3e, 0xb2, 0x26, 0x94, 0xbc, 0xef, 0x88, 0x87, 0x3e,
  0xa6, 0x3d, 0xf1, 0x3d, 0xed, 0x7b, 0x96, 0xbe, 0xc6, 0xb0, 0x20, 0xbe,
  0x60, 0xce, 0x6f, 0x3d, 0xd9, 0x69, 0x65, 0xbe, 0x6e, 0xcd, 0x83, 0xbc,
  0x71, 0x9a, 0x34, 0x3e, 0x42, 0xd2, 0x12, 0x3e, 0xad, 0x26, 0xa4, 0x3d,
  0x5d, 0x86, 0x20, 0x3e, 0x4b, 0x5f, 0x89, 0xbd, 0x04, 0x1a, 0x4f, 0xbe,
  0xec, 0x76, 0x83, 0xbe, 0x09, 0xdf, 0x3e, 0xbe, 0xab, 0x61, 0xc7, 0x3d,
  0xa9, 0x5b, 0x20, 0x3d, 0x92, 0xef, 0xda, 0xbc, 0x9d, 0xc6, 0x6b, 0x3d,
  0xdd, 0xb0, 0x82, 0x3e, 0xa9, 0x0d, 0xc4, 0xbc, 0x8f, 0x16, 0xf4, 0x3d,
  0x75, 0x25, 0x5e, 0xbe, 0xec, 0x3a, 0xbd, 0x3d, 0xa7, 0x7b, 0x4b, 0xbd,
  0x03, 0xf4, 0x4f, 0xbe, 0xc0, 0xf3, 0x75, 0xbe, 0x32, 0x7a, 0x76, 0x3e,
  0xa9, 0x5c, 0x34, 0xbc, 0x43, 0x5e, 0x32, 0xbd, 0xbb, 0x8c, 0x99, 0x3c,
  0x6d, 0x8c, 0x18, 0x3e, 0x12, 0x0a, 0xea, 0xbd, 0xcd, 0xf2, 0xea, 0x3d,
  0x5c, 0x8f, 0x98, 0x3d, 0xfa, 0x2d, 0x37, 0x3e, 0x8e, 0x22, 0x51, 0x3e,
  0x2a, 0x14, 0x36, 0x3e, 0x33, 0x8a, 0xf8, 0x3d, 0x1a, 0x3e, 0x39, 0x3e,
  0x74, 0x91, 0x01, 0xbd, 0x45, 0x51, 0x5e, 0x3e, 0x52, 0xa1, 0x9d, 0x3d,
  0x27, 0xeb, 0x4c, 0xbd, 0x91, 0x68, 0x01, 0x3e, 0x02, 0x6a, 0x0c, 0xbe,
  0xda, 0x10, 0xd5, 0xbc, 0x7b, 0x87, 0xe9, 0x3d, 0x3d, 0xda, 0x8f, 0xbe,
  0x0c, 0x47, 0x56, 0xbc, 0x72, 0xcd, 0xbe, 0x3d, 0xaf, 0x8c, 0x83, 0xbd,
  0x0d, 0xd3, 0x04, 0x3e, 0x84, 0x67, 0x49, 0xbe, 0xf8, 0x92, 0xa8, 0xbd,
  0x10, 0x83, 0x82, 0x3d, 0x2d, 0xce, 0xb6, 0xbb, 0x54, 0xbc, 0xe8, 0xbd,
  0x4a, 0xb2, 0x31, 0xbd, 0xc1, 0xe9, 0x7a, 0x3e, 0x27, 0xc5, 0x1d, 0x3d,
  0x67, 0x75, 0x01, 0xbe, 0xe6, 0x32, 0x22, 0x3e, 0x97, 0x0d, 0x74, 0x3e,
  0xfb, 0x8e, 0x74, 0xbe, 0x4e, 0xe6, 0xaf, 0xbd, 0x9f, 0x78, 0xde, 0x3d,
  0x93, 0xca, 0xfc, 0xbd, 0x7c, 0x2a, 0xef, 0xbd, 0x23, 0x38, 0x42, 0xbe,
  0x25, 0x93, 0xcb, 0x3d, 0xe0, 0xbf, 0x5e, 0xbe, 0x59, 0x3f, 0x93, 0x3d,
  0x0a, 0xee, 0x87, 0x3e, 0x6f, 0xa5, 0x67, 0xbe, 0xc2, 0xa4, 0xd2, 0x3d,
  0x4d, 0x8a, 0x3d, 0xbe, 0x96, 0xc9, 0xb9, 0x3c, 0x57, 0x67, 0x1f, 0x3e,
  0xd8, 0xb4, 0xa1, 0x3d, 0x3c, 0x18, 0x45, 0x3e, 0x37, 0x56, 0xb8, 0x3d,
  0x7e, 0x9f, 0x36, 0x3c, 0x2e, 0x37, 0xb4, 0xbd, 0x76, 0xa3, 0xba, 0xbb,
  0xa1, 0x17, 0x9b, 0xbe, 0x94, 0x80, 0x08, 0xbd, 0x0d, 0xc5, 0x97, 0xbd,
  0x93, 0x1d, 0xad, 0xbd, 0x0e, 0xf0, 0x44, 0x3e, 0xce, 0x54, 0x76, 0xbd,
  0x73, 0xba, 0x66, 0xbd, 0x8b, 0x8f, 0x37, 0xbc, 0x6f, 0xd2, 0xfb, 0xbd,
  0x66, 0x9d, 0x01, 0xbe, 0x9b, 0xbf, 0x48, 0xbe, 0x26, 0xa9, 0x0a, 0xbe,
  0x0c, 0x61, 0x22, 0xbe, 0xd0, 0xe7, 0x89, 0x3e, 0x31, 0xde, 0x37, 0x3e,
  0xde, 0x3e, 0x89, 0x3c, 0x86, 0xfe, 0x06, 0x3e, 0x71, 0x21, 0xd8, 0xbc,
  0xc2, 0x8f, 0xa7, 0x3c, 0x8a, 0x64, 0x7a, 0x3e, 0xe4, 0xd3, 0x5b, 0xbe,
  0xef, 0x9d, 0x21, 0x3e, 0xc1, 0xf0, 0x2f, 0xbe, 0xb8, 0x77, 0x23, 0xbe,
  0x7e, 0xb5, 0x4a, 0xbe, 0x58, 0x50, 0x64, 0x3d, 0x95, 0x9b, 0x4f, 0xbc,
  0x78, 0x15, 0xdc, 0x3d, 0x1b, 0xea, 0x73, 0x3e, 0x84, 0xc8, 0x4a, 0x3e,
  0x54, 0x0d, 0x1b, 0xbe, 0x49, 0xc6, 0xc1, 0x3c, 0xd2, 0xdc, 0x2b, 0xbe,
  0x60, 0xc4, 0x23, 0xbe, 0xe1, 0x7f, 0xdd, 0x3d, 0x38, 0x7e, 0xd7, 0xbc,
  0xf4, 0xb8, 0xa2, 0x3c, 0x4e, 0xbe, 0x22, 0xbe, 0x86, 0x8a, 0x8b, 0x3e,
  0xf9, 0xaa, 0xdf, 0x3c, 0x59, 0xce, 0x7a, 0x3d, 0x00, 0x96, 0x2c, 0x3e,
  0x88, 0x2a, 0x6c, 0x3e, 0x78, 0x9d, 0x2c, 0x3e, 0xb3, 0x09, 0x56, 0xbe,
  0x8a, 0x18, 0x4c, 0x3e, 0x26, 0x73, 0xb5, 0xbc, 0x05, 0x33, 0x0f, 0xbd,
  0xa3, 0xb1, 0x27, 0xbe, 0x71, 0x18, 0x30, 0x3e, 0xe5, 0x54, 0x8c, 0xbe,
  0x16, 0x81, 0x9e, 0x3e, 0x30, 0x88, 0xb9, 0x3d, 0xb6, 0x6e, 0x4e, 0x3e,
  0x5f, 0xfa, 0xb8, 0xbd, 0x7d, 0x09, 0x7a, 0xbe, 0xfb, 0xb2, 0x4c, 0x3e,
  0x2a, 0x25, 0x4d, 0x3d, 0x05, 0x5e, 0x04, 0x3e, 0x53, 0xfa, 0x3d, 0xbc,
  0x06, 0x51, 0x69, 0xbd, 0x82, 0x10, 0xc5, 0xbd, 0x25, 0x0c, 0x0c, 0x3e,
  0x70, 0xaa, 0x1b, 0xbc, 0x4b, 0xc3, 0x06, 0x3e, 0x84, 0x72, 0x4f, 0x3d,
  0x08, 0x5d, 0x2a, 0x3e, 0xad, 0x8d, 0x0a, 0x3e, 0xc0, 0xa7, 0x70, 0xbe,
  0x61, 0xa8, 0x90, 0x3d, 0xc1, 0x8b, 0x02, 0xbe, 0x26, 0x18, 0xfe, 0xbd,
  0xaa, 0x45, 0x8d, 0xbd, 0x00, 0x18, 0x68, 0x3e, 0xbe, 0x8e, 0x93, 0xbd,
  0x29, 0xd8, 0x61, 0x3d, 0xc9, 0x73, 0x2c, 0xbe, 0xff, 0xfd, 0xd9, 0xbd,
  0x98, 0xc7, 0x41, 0xbe, 0xab, 0xd2, 0xb0, 0x3d, 0x75, 0xdd, 0x03, 0x3e,
  0xec, 0x2b, 0x83, 0xbd, 0x2b, 0x0e, 0x07, 0xbd, 0x4c, 0x88, 0x1b, 0xbe,
  0x47, 0xee, 0x84, 0xbd, 0xbe, 0xc7, 0x00, 0xbe, 0x36, 0xe8, 0xc6, 0xbc,
  0x7c, 0x62, 0x72, 0xbe, 0x6f, 0x12, 0x84, 0xbd, 0x61, 0x88, 0x6e, 0xbd,
  0xd2, 0x9d, 0x94, 0x3d, 0x2e, 0x29, 0x85, 0x3e, 0xe1, 0xa4, 0x4a, 0xbe,
  0x25, 0xf0, 0x53, 0x3d, 0xf7, 0x38, 0x64, 0x3e, 0x54, 0x53, 0xb3, 0x3d,
  0xd0, 0xe2, 0x57, 0xbd, 0x8b, 0xcd, 0x48, 0xbc, 0x07, 0xd6, 0xa5, 0xbe,
  0x0d, 0x4c, 0xd9, 0x3d, 0x48, 0x21, 0x30, 0xbe, 0x77, 0x34, 0x44, 0xbc,
  0xef, 0x88, 0x2f, 0x3d, 0x4b, 0xbf, 0x3d, 0xbe, 0xf5, 0xe7, 0x3f, 0x3d,
  0x64, 0x3b, 0x24, 0x3e, 0xe6, 0xd1, 0x1f, 0x3e, 0xf4, 0x94, 0x50, 0xbd,
  0xa4, 0x73, 0x6f, 0xbe, 0xed, 0x2a, 0x65, 0xbe, 0x5b, 0x7e, 0x38, 0x3c,
  0xec, 0xe7, 0x36, 0x3e, 0xeb, 0xe4, 0x85, 0xbd, 0xd1, 0x8d, 0x0b, 0xbe,
  0xcf, 0xdb, 0x3d, 0xbe, 0x35, 0xbc, 0x59, 0x3e, 0xbd, 0xfa, 0xd1, 0xbd,
  0xa3, 0xcd, 0x50, 0xbe, 0xff, 0x12, 0x41, 0xbe, 0x56, 0x94, 0x9e, 0x3d,
  0x07, 0xc9, 0x2c, 0xbc, 0xc5, 0x41, 0x6a, 0xbe, 0x6e, 0xca, 0x66, 0xbe,
  0xcc, 0xac, 0x15, 0x3d, 0x6b, 0x27, 0x49, 0xbe, 0x2c, 0x6b, 0x77, 0x3e,
  0xeb, 0xba, 0x20, 0xbd, 0x8b, 0x8e, 0xe4, 0xbd, 0x5f, 0x91, 0xdb, 0x3d,
  0x72, 0xb9, 0x80, 0xbd, 0xda, 0xec, 0x65, 0xbe, 0xc8, 0x98, 0x17, 0xbd,
  0xe5, 0xfb, 0x36, 0x3e, 0xff, 0x53, 0xf0, 0x3d, 0xa8, 0xc0, 0x89, 0xbd,
  0xaa, 0x29, 0x49, 0xbd, 0xe3, 0x47, 0x31, 0x3d, 0x4a, 0xb6, 0x9a, 0xbe,
  0xc9, 0xcf, 0x34, 0x3e, 0x7d, 0x79, 0x15, 0x3e, 0xfb, 0xef, 0xa8, 0xbe,
  0xce, 0xbd, 0x89, 0x3d, 0x20, 0x47, 0x75, 0x3d, 0x22, 0x0b, 0x59, 0x3e,
  0x24, 0x39, 0xcf, 0xbd, 0xe6, 0x26, 0xfb, 0x3d, 0xf5, 0xe5, 0x1e, 0xbc,
  0x21, 0x17, 0x3d, 0x3e, 0xd1, 0x9d, 0xb8, 0xbc, 0xa5, 0x8f, 0x6d, 0xbe,
  0x61, 0x59, 0x02, 0x3d, 0x58, 0x6a, 0xa9, 0x3d, 0xac, 0xcd, 0xa8, 0x3d,
  0x25, 0x31, 0x80, 0xbe, 0xb7, 0xb0, 0x14, 0xbe, 0x2d, 0x74, 0xee, 0xbd,
  0x19, 0x4c, 0x7c, 0xbe, 0x38, 0xba, 0x4e, 0xbe, 0x23, 0xdb, 0x85, 0xbe,
  0x66, 0x8f, 0x14, 0xbe, 0xe7, 0x5d, 0x7e, 0x3d, 0xbf, 0xaf, 0xaa, 0xbd,
  0xf9, 0x72, 0xf0, 0x3d, 0x33, 0x51, 0x16, 0x3e, 0xa0, 0xba, 0x9e, 0xbd,
  0x5d, 0xb6, 0x2e, 0x3e, 0x0e, 0xce, 0x2c, 0xbe, 0x3a, 0x8a, 0xe4, 0x3d,
  0xc3, 0x38, 0x3f, 0xbe, 0x28, 0x26, 0xf1, 0x3d, 0xb0, 0x26, 0x55, 0x3e,
  0x69, 0xac, 0x0b, 0x3e, 0x2f, 0x8f, 0x11, 0xbe, 0x3c, 0x69, 0x9c, 0xbd,
  0x5d, 0xc5, 0x47, 0xbe, 0x39, 0x7c, 0x1c, 0xbc, 0xa9, 0x0b, 0x56, 0xbe,
  0x4e, 0x61, 0x02, 0xbe, 0xdf, 0x2e, 0x5c, 0x3e, 0xa6, 0x77, 0x32, 0x3e,
  0xed, 0xe1, 0x68, 0x3e, 0x92, 0xc0, 0xeb, 0x3c, 0x47, 0xc4, 0x02, 0x3c,
  0x1e, 0x0b, 0x5e, 0x3e, 0xce, 0x67, 0xb1, 0xbb, 0x04, 0x4a, 0x57, 0xbe,
  0xce, 0x4e, 0xe7, 0x3d, 0x3c, 0x55, 0x28, 0xbe, 0x23, 0x85, 0x1d, 0xbe,
  0x8d, 0x83, 0x16, 0xbd, 0xd2, 0x8d, 0x36, 0x3e, 0x2f, 0xa2, 0xdc, 0x3d,
  0xd5, 0x0d, 0xdf, 0xbd, 0x68, 0xa9, 0xff, 0x3d, 0xe4, 0x08, 0x3e, 0x3e,
  0x0f, 0x3e, 0xbf, 0xbc, 0x19, 0xe1, 0x39, 0x3e, 0x55, 0xfe, 0x46, 0x3e,
  0x38, 0x69, 0x2c, 0xbe, 0x61, 0x81, 0x21, 0xbe, 0xc3, 0xa1, 0xad, 0xbb,
  0xd9, 0xd1, 0xbc, 0xbd, 0x85, 0xc5, 0x73, 0xbe, 0xeb, 0x1c, 0x9d, 0x3b,
  0xfd, 0xfb, 0x42, 0xbe, 0xc6, 0xb7, 0x8f, 0xbd, 0x00, 0x0e, 0xcd, 0x3d,
  0x11, 0xa3, 0x0d, 0xbe, 0x42, 0x47, 0x61, 0x3e, 0x0e, 0x76, 0x83, 0x3e,
  0x93, 0x4b, 0xa8, 0x3d, 0x6d, 0x4d, 0x0c, 0x3e, 0x05, 0x8a, 0x10, 0xbe,
  0x46, 0x41, 0x94, 0x3b, 0xd1, 0xfe, 0x81, 0xbe, 0xfc, 0xb1, 0x13, 0xbe,
  0xb6, 0xc6, 0x63, 0x3d, 0x3f, 0x43, 0x04, 0xbd, 0xa2, 0x86, 0x1b, 0x3e,
  0xa9, 0xdf, 0x08, 0x3e, 0x7e, 0x30, 0x5d, 0xbe, 0x8a, 0xe3, 0x94, 0x3d,
  0xaa, 0xe5, 0xff, 0xff, 0x04, 0x00, 0x00, 0x00, 0x80, 0x00, 0x00, 0x00,
  0x00, 0x00, 0x00, 0x00, 0x00, 0x00, 0x00, 0x00, 0x00, 0x00, 0x00, 0x00,
  0x00, 0x00, 0x00, 0x00, 0x00, 0x00, 0x00, 0x00, 0x00, 0x00, 0x00, 0x00,
  0x00, 0x00, 0x00, 0x00, 0x00, 0x00, 0x00, 0x00, 0x00, 0x00, 0x00, 0x00,
  0x00, 0x00, 0x00, 0x00, 0x00, 0x00, 0x00, 0x00, 0x00, 0x00, 0x00, 0x00,
  0x00, 0x00, 0x00, 0x00, 0x00, 0x00, 0x00, 0x00, 0x00, 0x00, 0x00, 0x00,
  0x00, 0x00, 0x00, 0x00, 0x00, 0x00, 0x00, 0x00, 0x00, 0x00, 0x00, 0x00,
  0x00, 0x00, 0x00, 0x00, 0x00, 0x00, 0x00, 0x00, 0x00, 0x00, 0x00, 0x00,
  0x00, 0x00, 0x00, 0x00, 0x00, 0x00, 0x00, 0x00, 0x00, 0x00, 0x00, 0x00,
  0x00, 0x00, 0x00, 0x00, 0x00, 0x00, 0x00, 0x00, 0x00, 0x00, 0x00, 0x00,
  0x00, 0x00, 0x00, 0x00, 0x00, 0x00, 0x00, 0x00, 0x00, 0x00, 0x00, 0x00,
  0x00, 0x00, 0x00, 0x00, 0x00, 0x00, 0x00, 0x00, 0x36, 0xe6, 0xff, 0xff,
  0x04, 0x00, 0x00, 0x00, 0x00, 0x18, 0x00, 0x00, 0xa3, 0x19, 0x07, 0xbe,
  0x90, 0x28, 0x61, 0x3d, 0x80, 0x43, 0x23, 0x3e, 0xde, 0x01, 0x93, 0xbd,
  0x78, 0xd3, 0xac, 0xbc, 0xa0, 0x52, 0xa7, 0x3b, 0x3c, 0x04, 0x06, 0x3e,
  0x78, 0x48, 0xdc, 0xbd, 0xf3, 0x64, 0x39, 0xbd, 0xa1, 0x34, 0x5e, 0x3e,
  0xf4, 0xa6, 0xf3, 0xbd, 0x47, 0x47, 0x84, 0x3e, 0x43, 0x48, 0x09, 0x3e,
  0xcd, 0x7a, 0xe3, 0x3d, 0xfc, 0xb7, 0x6b, 0x3e, 0xde, 0xb2, 0x03, 0xbe,
  0x13, 0x88, 0xff, 0x3c, 0x3e, 0x6e, 0x15, 0x3e, 0x41, 0xfc, 0xae, 0xbd,
  0x9a, 0xb8, 0x0f, 0x3e, 0xb0, 0xc3, 0x00, 0xbe, 0x01, 0x28, 0xa2, 0xbb,
  0xb9, 0x6a, 0x95, 0x3d, 0x25, 0x3e, 0x15, 0xbd, 0x0d, 0x92, 0x00, 0xbe,
  0x1b, 0xc9, 0xf1, 0x3c, 0xaf, 0x6e, 0x1b, 0x3e, 0x8e, 0x81, 0x27, 0x3e,
  0xba, 0xe1, 0x07, 0xbc, 0xec, 0x2e, 0x19, 0x3e, 0xae, 0x50, 0x13, 0xbd,
  0x24, 0xb1, 0xab, 0x3c, 0xa8, 0x67, 0x19, 0x3e, 0x40, 0x44, 0x1c, 0x3e,
  0xd2, 0x9b, 0x27, 0xbe, 0x5b, 0x2a, 0xe0, 0xbc, 0x48, 0x12, 0x17, 0x3e,
  0x4d, 0x2b, 0xfe, 0xbc, 0x68, 0xe1, 0xfc, 0xbd, 0x92, 0x2c, 0x0c, 0x3d,
  0xdd, 0x42, 0x00, 0x3e, 0xa3, 0x51, 0xae, 0xbd, 0x2e, 0xfd, 0xa0, 0xbd,
  0x88, 0x31, 0xbe, 0x3c, 0xdc, 0xcc, 0xb6, 0xbd, 0x0c, 0x81, 0x11, 0xbe,
  0xda, 0x55, 0xdf, 0x3b, 0x43, 0x13, 0x70, 0xbe, 0xec, 0xdf, 0x8d, 0xbe,
  0xe4, 0xa6, 0xc3, 0x3d, 0x2f, 0xa1, 0x0f, 0xbd, 0xcf, 0xab, 0x83, 0x3d,
  0xc7, 0xc1, 0x50, 0x3e, 0x2d, 0x1a, 0xe0, 0xbc, 0x32, 0x2f, 0x17, 0x3e,
  0xbd, 0x2f, 0x2d, 0xbe, 0xc3, 0x4f, 0xd8, 0xbd, 0x4e, 0x5d, 0x92, 0x3d,
  0xfc, 0x80, 0x4c, 0xbc, 0xfa, 0xd2, 0x6b, 0x3e, 0x3c, 0x23, 0xe7, 0x3d,
  0x07, 0x3e, 0x45, 0xbd, 0x39, 0x40, 0x34, 0x3e, 0x34, 0x9d, 0x7e, 0x3d,
  0xf2, 0x66, 0x13, 0x3d, 0x00, 0xf7, 0x33, 0xbd, 0x72, 0xb1, 0x15, 0xbe,
  0xcd, 0x7a, 0x4b, 0xbe, 0xdd, 0x10, 0x0f, 0xbe, 0x0a, 0x01, 0x23, 0xbc,
  0x9b, 0x07, 0x1c, 0x3e, 0x09, 0x17, 0x15, 0xbe, 0x51, 0x6a, 0x3d, 0x3d,
  0x1e, 0xfb, 0xb3, 0x39, 0xf4, 0x4b, 0xfc, 0x3d, 0x3e, 0x10, 0x0b, 0xbd,
  0xea, 0x0e, 0xa5, 0x3d, 0xbc, 0x4d, 0x17, 0xbe, 0x66, 0xac, 0xea, 0x3c,
  0x38, 0x05, 0x1d, 0xbd, 0xe5, 0x99, 0x19, 0xbb, 0x8f, 0x8e, 0xc5, 0xbc,
  0xe9, 0x33, 0x9f, 0x3d, 0x5e, 0xd5, 0x17, 0xbc, 0x89, 0x70, 0x5d, 0xbc,
  0xd9, 0x7e, 0xb1, 0x3d, 0x23, 0x91, 0x09, 0xbd, 0x1f, 0xd8, 0xbd, 0x3c,
  0xc0, 0xda, 0xbc, 0x3c, 0x8e, 0xd9, 0x22, 0xbd, 0xc4, 0xe3, 0x3b, 0x3d,
  0x77, 0x56, 0x72, 0x3b, 0x48, 0x2b, 0xe6, 0xbc, 0xd5, 0x83, 0x93, 0xbd,
  0x11, 0xd3, 0x75, 0x3d, 0x40, 0x6d, 0xf3, 0xbc, 0xe9, 0xd5, 0xe7, 0xbd,
  0x41, 0x9a, 0x02, 0xbe, 0xe3, 0x4a, 0x02, 0xbd, 0x17, 0x12, 0x79, 0xbd,
  0x8d, 0x94, 0x24, 0x3d, 0x3c, 0x21, 0x44, 0x3d, 0x47, 0xb4, 0xf8, 0xbd,
  0x05, 0x6c, 0x61, 0x3d, 0x2e, 0x51, 0xc9, 0x3d, 0x9f, 0xa2, 0xca, 0xbd,
  0x36, 0xc1, 0xf7, 0x3d, 0xce, 0x79, 0xc1, 0x3d, 0x76, 0x86, 0x01, 0xbe,
  0x69, 0x2e, 0x3a, 0x3d, 0xb4, 0x68, 0x4a, 0x3e, 0xcb, 0x54, 0x98, 0x3d,
  0x16, 0x50, 0x05, 0xbe, 0xcb, 0x27, 0x0b, 0x3e, 0xa9, 0x67, 0x0b, 0xbe,
  0xf8, 0xa5, 0xa3, 0x3d, 0xde, 0xf9, 0xde, 0x3c, 0x27, 0x70, 0x96, 0xbe,
  0x92, 0x39, 0xf7, 0x3d, 0x26, 0x3a, 0x35, 0x3e, 0x82, 0x9e, 0x3e, 0x3d,
  0xe3, 0x99, 0x98, 0xbd, 0x6e, 0x86, 0x48, 0xbe, 0x18, 0x62, 0x4f, 0x3d,
  0xd7, 0x0e, 0x80, 0xbd, 0xad, 0x41, 0x11, 0x3e, 0x7c, 0xd8, 0x6e, 0xbd,
  0x8b, 0x32, 0x05, 0x3e, 0x7d, 0xb4, 0x40, 0xbe, 0xef, 0x15, 0x97, 0x3c,
  0xa0, 0x6c, 0x88, 0xbe, 0x72, 0x1d, 0x1f, 0x3e, 0xb2, 0x49, 0x51, 0xbd,
  0x9d, 0x41, 0x23, 0xbe, 0xa0, 0x88, 0x40, 0xbe, 0x5d, 0xa4, 0x61, 0xbe,
  0x8b, 0xf6, 0x2b, 0x3d, 0xf3, 0x1d, 0x2a, 0xbe, 0x0a, 0xed, 0x43, 0x3d,
  0x0e, 0x2a, 0xd9, 0xbd, 0x9f, 0x0d, 0xfe, 0x3b, 0x0c, 0xe1, 0x6d, 0x3e,
  0x8c, 0x63, 0x02, 0x3e, 0x12, 0x67, 0x30, 0x3e, 0xaf, 0xa6, 0x6b, 0xbe,
  0x4b, 0x30, 0xed, 0x3d, 0x91, 0x91, 0x70, 0xbd, 0xe2, 0xd3, 0x17, 0xbe,
  0xff, 0x12, 0x10, 0x3e, 0x59, 0x7a, 0xbe, 0xbd, 0x6c, 0x8d, 0x07, 0xbe,
  0xc7, 0x24, 0xbf, 0x3c, 0xd5, 0xa7, 0x05, 0xbd, 0xec, 0xc1, 0x88, 0x3d,
  0x86, 0xb5, 0x90, 0xbd, 0xae, 0x66, 0xc1, 0xbd, 0x45, 0x2d, 0xc1, 0xbb,
  0xfd, 0xab, 0xb6, 0xbd, 0xe1, 0xbc, 0x85, 0x3e, 0x3d, 0xfa, 0x03, 0x3e,
  0x02, 0x14, 0xf2, 0xbc, 0x24, 0xc2, 0x38, 0x3d, 0x18, 0x1e, 0xc4, 0xbc,
  0x6e, 0x04, 0xe5, 0xbb, 0x38, 0x4a, 0xe0, 0x3d, 0xe3, 0x03, 0xd6, 0xbd,
  0x1d, 0xbf, 0x8b, 0xbd, 0xe7, 0x7e, 0xfd, 0x3d, 0xfc, 0x30, 0x10, 0x3e,
  0xb1, 0x6b, 0xc3, 0xbd, 0xd5, 0xd0, 0x8f, 0xbd, 0x38, 0xee, 0xa3, 0xbd,
  0xeb, 0x29, 0x46, 0x3a, 0xcd, 0xae, 0x4b, 0xbe, 0xc0, 0x9a, 0x15, 0x3c,
  0x5b, 0x0d, 0x30, 0xbe, 0xab, 0xdf, 0x1c, 0x3d, 0x0a, 0xbe, 0xa1, 0xbc,
  0x4e, 0xad, 0xdd, 0xbd, 0x30, 0x08, 0x6b, 0x3b, 0x4f, 0x65, 0x6c, 0xbd,
  0xe4, 0x1b, 0xe0, 0x3d, 0xca, 0xbb, 0xba, 0xbd, 0x3a, 0x54, 0x87, 0xbc,
  0xe8, 0x43, 0xd8, 0xbd, 0x21, 0xf8, 0x35, 0xbe, 0xb7, 0xe6, 0x90, 0xbb,
  0xfd, 0xd7, 0x17, 0x3e, 0xf1, 0xb9, 0xb9, 0xbc, 0xe5, 0x95, 0x4a, 0xbe,
  0xc6, 0xd8, 0x23, 0x3e, 0x7e, 0xa0, 0x26, 0xbe, 0x3f, 0x8a, 0x4d, 0x3b,
  0xcb, 0xc0, 0xad, 0xbd, 0xc3, 0x43, 0x3d, 0xbd, 0xba, 0xb4, 0x9b, 0x3d,
  0x09, 0xde, 0x5d, 0x3e, 0x47, 0xb5, 0x07, 0xbe, 0xab, 0x5d, 0x29, 0xbc,
  0x69, 0x57, 0x1b, 0xbe, 0xa2, 0xf0, 0x40, 0xbe, 0xbd, 0xcc, 0xea, 0xbb,
  0xbf, 0x83, 0xa9, 0xbb, 0xd7, 0xc6, 0xfa, 0x3d, 0xd5, 0x60, 0xbf, 0x3c,
  0x1d, 0x62, 0xe1, 0xbd, 0x68, 0xca, 0x7c, 0xbd, 0xf4, 0x1f, 0x79, 0x3c,
  0x10, 0x0b, 0xab, 0x3d, 0xcb, 0x3d, 0xe0, 0xbd, 0x3c, 0xc8, 0xb3, 0xbd,
  0xb0, 0xb6, 0x4a, 0x3d, 0x67, 0x09, 0x9c, 0xbc, 0xa2, 0x26, 0xc6, 0xbd,
  0x47, 0x5e, 0x9c, 0xbd, 0xfb, 0x5a, 0x5d, 0x3d, 0x06, 0x4f, 0x08, 0x3c,
  0x3f, 0xda, 0xd6, 0x3d, 0x29, 0xf5, 0x03, 0xbb, 0x0b, 0x36, 0x45, 0x3d,
  0x98, 0x36, 0x09, 0x3e, 0xec, 0x2f, 0x33, 0x3d, 0x06, 0x69, 0x86, 0x3e,
  0x71, 0x6c, 0xce, 0xbd, 0x1d, 0xb1, 0x57, 0xbe, 0x75, 0x26, 0x65, 0xbe,
  0xdc, 0x7b, 0xc3, 0x3d, 0x0f, 0x70, 0x13, 0xbd, 0x6b, 0xeb, 0x2e, 0x3e,
  0x68, 0x82, 0x10, 0xbe, 0x2a, 0x75, 0x1c, 0x3b, 0x3a, 0x65, 0x47, 0xbd,
  0xef, 0x07, 0xe8, 0x3c, 0x85, 0xe2, 0xeb, 0xbb, 0xe0, 0x34, 0xd8, 0xbd,
  0x86, 0xc7, 0xbb, 0x3d, 0x3b, 0x42, 0x46, 0xbe, 0x58, 0x85, 0x10, 0xbe,
  0xfc, 0x9b, 0x09, 0x3e, 0xd0, 0x14, 0x68, 0xbe, 0xc3, 0x99, 0xda, 0xbd,
  0xb1, 0xda, 0x5b, 0xbc, 0xf4, 0x80, 0x3f, 0x39, 0x73, 0x5c, 0x83, 0xbc,
  0xfd, 0xcf, 0xd4, 0x3d, 0xf7, 0x49, 0x8b, 0x3d, 0x38, 0x2d, 0x3a, 0xbe,
  0x22, 0x6f, 0x29, 0xbd, 0x81, 0xb4, 0x06, 0x3b, 0xc5, 0x3a, 0x65, 0xbd,
  0xf2, 0x2b, 0x05, 0x3e, 0xc5, 0x12, 0x36, 0x3e, 0x12, 0x90, 0x0d, 0xbe,
  0xec, 0xe9, 0xc3, 0xbd, 0xfe, 0xe1, 0x85, 0x3d, 0x4b, 0xeb, 0xb9, 0xbd,
  0x92, 0xc5, 0x2a, 0xbe, 0xe7, 0xa5, 0x08, 0x3e, 0x6c, 0xfb, 0xd4, 0xbc,
  0xf7, 0xc2, 0xc0, 0xbc, 0xaa, 0x35, 0x02, 0x3e, 0xec, 0x2a, 0x54, 0xbe,
  0x66, 0x98, 0x1d, 0x3e, 0xcc, 0xa2, 0x39, 0xbe, 0x36, 0x23, 0x56, 0xbe,
  0x9d, 0x72, 0x1c, 0xbe, 0x10, 0x5b, 0x74, 0x3d, 0xe6, 0x8e, 0xaf, 0x3d,
  0x5e, 0xda, 0x41, 0x3e, 0xd3, 0x26, 0x4b, 0x3d, 0x40, 0xaf, 0x1e, 0xbd,
  0xe6, 0xd8, 0x45, 0xbe, 0x0b, 0xaa, 0xb8, 0xbd, 0xb5, 0x43, 0x86, 0xbe,
  0x06, 0x7a, 0x83, 0x3d, 0x6f, 0xc4, 0xd3, 0x3d, 0xe0, 0xcd, 0x96, 0x3d,
  0xc4, 0xe9, 0x2e, 0x3d, 0xdd, 0xac, 0x39, 0x3e, 0x83, 0xe3, 0x2b, 0x3d,
  0x63, 0x13, 0x62, 0xbe, 0xdb, 0xd1, 0x32, 0xbe, 0xdf, 0x40, 0xdf, 0xbd,
  0x0a, 0x7b, 0xde, 0xbd, 0x97, 0x57, 0x0a, 0x3e, 0x49, 0x7c, 0x4e, 0xbe,
  0xbd, 0x7d, 0x89, 0xbe, 0x17, 0xb9, 0xfe, 0x3a, 0x44, 0x3b, 0x8c, 0x3d,
  0x76, 0xc5, 0xe9, 0x3d, 0xa6, 0xe7, 0x18, 0xbe, 0x0b, 0x55, 0x3e, 0xbd,
  0xed, 0x95, 0xd3, 0x3d, 0xdf, 0xd8, 0xa0, 0x3d, 0xd8, 0xfc, 0x23, 0xbe,
  0xd2, 0x45, 0xe9, 0x3d, 0xc3, 0x28, 0x70, 0xbe, 0xbd, 0x2b, 0x8e, 0xbd,
  0x2d, 0x0c, 0x64, 0xbd, 0x97, 0x1c, 0xc8, 0xbd, 0x85, 0x82, 0x31, 0x3b,
  0x1b, 0x5a, 0xf7, 0x3d, 0x71, 0x54, 0xcf, 0xbd, 0x00, 0xc2, 0xc5, 0xbd,
  0x19, 0x8b, 0xf9, 0xbd, 0xe4, 0x27, 0x82, 0x3d, 0x26, 0xe3, 0xf7, 0xbd,
  0x26, 0x27, 0x40, 0x3d, 0x39, 0x47, 0xa4, 0x3d, 0xf7, 0x31, 0xf5, 0x3b,
  0x39, 0xac, 0x0a, 0x3e, 0x45, 0xfd, 0x3a, 0x3d, 0x4b, 0x78, 0x99, 0xbd,
  0x4b, 0x0d, 0x2a, 0xbc, 0x52, 0xd2, 0x56, 0xbe, 0x21, 0x94, 0xda, 0xbd,
  0x4d, 0x42, 0xf7, 0x3d, 0x06, 0xeb, 0x27, 0x3e, 0xaf, 0x56, 0x9b, 0xbd,
  0x4f, 0x3f, 0x18, 0xbc, 0x74, 0x20, 0x17, 0xbe, 0x5f, 0xbd, 0x02, 0xbe,
  0x13, 0x15, 0xc0, 0xbd, 0xaf, 0x20, 0x7a, 0xbc, 0xf2, 0xb7, 0xcd, 0xbd,
  0x9b, 0xb1, 0x82, 0x3c, 0x63, 0xc0, 0x36, 0xbe, 0x7e, 0xb2, 0xf4, 0x3d,
  0xee, 0x40, 0x6e, 0x3b, 0xd4, 0xee, 0x46, 0x3e, 0xf2, 0x7c, 0xec, 0xbc,
  0xb5, 0xf3, 0x15, 0x3d, 0xc7, 0xa8, 0x52, 0xbd, 0xd6, 0x1b, 0x51, 0xbd,
  0x90, 0x6c, 0x08, 0x3e, 0xeb, 0xe4, 0xb9, 0x3c, 0x86, 0x92, 0xb3, 0x3d,
  0x98, 0x58, 0x0a, 0xbe, 0x29, 0xbc, 0x34, 0x3e, 0xfa, 0xc5, 0x14, 0x3e,
  0x3d, 0x7d, 0xa6, 0xbb, 0x7d, 0x3a, 0x63, 0x3e, 0xb8, 0xd6, 0xe4, 0x3d,
  0xda, 0xd2, 0xf9, 0xbd, 0x2a, 0xce, 0x0b, 0x3e, 0x7f, 0x92, 0xcf, 0x3d,
  0x17, 0x05, 0xa8, 0x3d, 0xb5, 0x57, 0x4b, 0xbd, 0x87, 0x7d, 0xa4, 0xbd,
  0x93, 0x82, 0x97, 0xbc, 0xea, 0x42, 0x1c, 0x3e, 0xf1, 0x41, 0x0c, 0xbe,
  0xb7, 0xdf, 0x08, 0xbc, 0x13, 0x5f, 0xe6, 0x3d, 0x43, 0xe8, 0xb7, 0xbd,
  0x73, 0x2d, 0x99, 0xbd, 0x71, 0x70, 0xac, 0xbd, 0x3f, 0xdc, 0x08, 0xbe,
  0x9d, 0xde, 0x22, 0xbe, 0x4f, 0xaf, 0xbd, 0x3c, 0x82, 0xfb, 0xe4, 0x3d,
  0xb8, 0x58, 0x64, 0x3e, 0x43, 0xed, 0x80, 0xbd, 0x58, 0x5b, 0x96, 0xbb,
  0x85, 0x01, 0x79, 0xbd, 0x33, 0x0d, 0xe1, 0x3d, 0x9c, 0x3d, 0x94, 0xbd,
  0x4f, 0x37, 0x87, 0xbb, 0x1d, 0xef, 0xbf, 0xbd, 0xdd, 0x3d, 0x9a, 0x3d,
  0xf8, 0xfa, 0x66, 0xbe, 0x25, 0x87, 0xc8, 0x3d, 0x0b, 0x5e, 0x87, 0xbd,
  0x2d, 0x74, 0x0b, 0x3e, 0xaa, 0x0f, 0xc5, 0x3b, 0x7c, 0xe3, 0x17, 0xbe,
  0x60, 0x65, 0x54, 0xbc, 0x42, 0xd6, 0x5d, 0x3d, 0xcc, 0xab, 0xe9, 0x3d,
  0x4f, 0xba, 0x53, 0x3d, 0xcc, 0x21, 0xe0, 0x3d, 0x27, 0xd4, 0xb4, 0xbd,
  0x35, 0x48, 0xf1, 0xbc, 0x2d, 0xea, 0x30, 0xbd, 0x19, 0x46, 0x34, 0xbe,
  0xda, 0xd1, 0xd6, 0x3b, 0xa3, 0x2f, 0xb3, 0x3a, 0x7a, 0xe6, 0xfd, 0xbb,
  0x3a, 0x26, 0x01, 0x3e, 0xf4, 0x95, 0xba, 0xbd, 0x98, 0x07, 0x61, 0xbd,
  0xe1, 0x52, 0x10, 0xbe, 0xb4, 0x83, 0x73, 0x3c, 0x1a, 0xf9, 0x2b, 0x3e,
  0xc7, 0xfc, 0xcf, 0x3b, 0x2f, 0x7a, 0xaf, 0xbc, 0x94, 0x2e, 0x66, 0xbe,
  0x3a, 0x93, 0x62, 0xbe, 0x8f, 0xa6, 0x4f, 0x3e, 0x96, 0xf6, 0xb8, 0xbb,
  0x78, 0xdc, 0x4a, 0xbd, 0xad, 0x63, 0xd8, 0xbd, 0xa0, 0xaf, 0x07, 0x3e,
  0x54, 0xf2, 0x0f, 0x3c, 0x2c, 0xcb, 0x3a, 0xbd, 0x84, 0x55, 0xd9, 0x3d,
  0x72, 0x4a, 0x03, 0xbe, 0x28, 0xc2, 0xc2, 0xbd, 0x69, 0x70, 0x23, 0xbd,
  0x13, 0xe2, 0x3f, 0x3e, 0x5d, 0xe6, 0x59, 0xbd, 0x57, 0x99, 0x06, 0x3e,
  0x39, 0x61, 0x9d, 0x3d, 0x87, 0x26, 0xf7, 0xbd, 0xaf, 0x28, 0xf1, 0xbb,
  0xaf, 0xaf, 0xdf, 0x3d, 0x34, 0xa8, 0x26, 0x3e, 0x7a, 0xec, 0x16, 0xbd,
  0x5f, 0x40, 0x4f, 0xbc, 0xac, 0x98, 0x64, 0xbe, 0x2c, 0x29, 0xa2, 0x3d,
  0xf4, 0xe8, 0x7f, 0x3d, 0xd9, 0x25, 0x08, 0xbc, 0x7b, 0x44, 0x50, 0x3e,
  0x32, 0x98, 0xf9, 0x3d, 0x7b, 0x07, 0x71, 0x3e, 0x6f, 0x2b, 0xd8, 0x3d,
  0x27, 0x9f, 0x53, 0x3d, 0x90, 0xfb, 0x01, 0x3e, 0x54, 0xab, 0x0d, 0xbe,
  0xb3, 0x66, 0x2b, 0xbd, 0x08, 0x5a, 0xaf, 0x3b, 0x9b, 0x0c, 0x7d, 0x3d,
  0x98, 0xff, 0x1d, 0x3d, 0xb1, 0x27, 0xeb, 0x3d, 0x21, 0x0e, 0x59, 0x3d,
  0xa7, 0x3a, 0x0b, 0xbe, 0xe0, 0x6c, 0xd1, 0x3c, 0xca, 0x54, 0x48, 0x3c,
  0x65, 0x47, 0xe8, 0x3c, 0x38, 0x8a, 0xb1, 0xbd, 0xdd, 0xea, 0xa6, 0x3d,
  0xeb, 0xa3, 0xc4, 0xbd, 0xbe, 0x2c, 0x33, 0x3d, 0x91, 0xaa, 0x32, 0xbd,
  0x1b, 0x93, 0x22, 0x3e, 0x39, 0xcc, 0xef, 0xbd, 0x9e, 0x5c, 0xaf, 0xbd,
  0x30, 0x10, 0x03, 0xbe, 0x33, 0xa5, 0x15, 0xbe, 0xf0, 0xe3, 0xa9, 0xbd,
  0xb1, 0xed, 0x66, 0xbd, 0xde, 0x3b, 0x33, 0xbe, 0x1f, 0xc8, 0x58, 0xbe,
  0xe2, 0x09, 0x03, 0xbd, 0x1c, 0xea, 0xd7, 0xbd, 0xdb, 0xed, 0x09, 0x3c,
  0x3d, 0x9d, 0xb4, 0x3a, 0x9c, 0x10, 0xb0, 0xbd, 0x4c, 0xe4, 0x99, 0xbd,
  0x0e, 0x57, 0x56, 0x3e, 0xe0, 0xae, 0x9a, 0x3d, 0x58, 0x4e, 0x4c, 0xbd,
  0x28, 0x1a, 0x2c, 0x3a, 0x0f, 0xaf, 0x16, 0xbe, 0xf3, 0xc0, 0x2b, 0x3e,
  0x58, 0x02, 0x81, 0xbe, 0xf8, 0xe3, 0x9e, 0xbd, 0x26, 0xbc, 0x9b, 0xbd,
  0x8b, 0xc5, 0x0a, 0x3e, 0x2b, 0xe4, 0xb8, 0xbd, 0xd3, 0x4d, 0x89, 0x3e,
  0xc5, 0xc8, 0xa5, 0xbd, 0x7a, 0xc9, 0x3f, 0xbd, 0x05, 0x51, 0x05, 0xbe,
  0xe8, 0xa3, 0xc0, 0x3d, 0xc2, 0x58, 0x41, 0xbe, 0x28, 0x54, 0xd5, 0x3c,
  0xb8, 0x2f, 0xec, 0xbd, 0x27, 0x91, 0x72, 0x3c, 0xb5, 0xf1, 0x1e, 0xbe,
  0x4d, 0x88, 0xee, 0x3a, 0x41, 0x8c, 0x44, 0xbc, 0x51, 0xd3, 0x50, 0x3e,
  0xe8, 0x89, 0x9f, 0xbe, 0x18, 0xad, 0x51, 0xbe, 0xaa, 0x88, 0x45, 0xbd,
  0xcc, 0xd8, 0x3c, 0xbd, 0x13, 0x2d, 0x93, 0xbc, 0xc6, 0xe6, 0x2d, 0x3e,
  0x02, 0xf2, 0x0a, 0xbb, 0x66, 0x5d, 0x40, 0xbe, 0x8e, 0x0e, 0xbd, 0x3c,
  0xed, 0xd1, 0xd1, 0x3d, 0x52, 0xc5, 0xc1, 0x3d, 0xe2, 0xa6, 0x14, 0x3e,
  0xb5, 0xa5, 0xfc, 0xbd, 0xe2, 0x3e, 0xb0, 0x3c, 0x78, 0x70, 0x53, 0xbe,
  0x39, 0x22, 0x53, 0xbe, 0x87, 0x5e, 0xbc, 0x3c, 0x31, 0x71, 0x8d, 0xbe,
  0xdd, 0x65, 0x2b, 0x3e, 0x87, 0x7e, 0xcc, 0x3d, 0x24, 0x96, 0x9a, 0xbd,
  0x98, 0x72, 0xdb, 0xbb, 0xf4, 0x00, 0x39, 0xbd, 0xf6, 0x35, 0xe3, 0x3d,
  0x26, 0x3b, 0x0d, 0x3e, 0xba, 0x66, 0x18, 0xbe, 0x66, 0x4a, 0x4a, 0x3d,
  0x73, 0xfa, 0x70, 0xbd, 0xaa, 0xf0, 0x7d, 0xbe, 0xa8, 0x50, 0x17, 0x3e,
  0x6d, 0xe1, 0xe3, 0xbc, 0x3f, 0xdf, 0x8e, 0xbd, 0x81, 0x3b, 0x91, 0xbd,
  0xb3, 0x20, 0x67, 0xbd, 0x98, 0x24, 0xca, 0x3d, 0x68, 0xc2, 0x40, 0x3d,
  0x53, 0xe2, 0x11, 0xbe, 0xa1, 0x5a, 0x3b, 0xbd, 0x39, 0xa5, 0x01, 0xbe,
  0xca, 0xa7, 0xcb, 0xb9, 0x13, 0xfc, 0x8b, 0xbd, 0xb4, 0xed, 0x5f, 0x3e,
  0xc5, 0x05, 0x1d, 0xbe, 0x46, 0xdd, 0x8e, 0x3d, 0x4c, 0x06, 0x44, 0xbe,
  0x4f, 0xd2, 0xd3, 0x3d, 0x50, 0xf0, 0x38, 0xbe, 0x5b, 0xad, 0x83, 0xbc,
  0x3c, 0x38, 0xed, 0x3d, 0x66, 0x9a, 0x3d, 0xbe, 0xa5, 0x66, 0x68, 0xbd,
  0xcd, 0xbc, 0x1a, 0xbe, 0xcc, 0xcd, 0x78, 0xbd, 0x9d, 0x3e, 0x30, 0x3d,
  0x94, 0xad, 0x02, 0x3e, 0x3b, 0xd4, 0x41, 0x3d, 0x25, 0x08, 0x54, 0xbe,
  0x6c, 0xf7, 0xb6, 0x3d, 0xef, 0x9d, 0x80, 0x3d, 0x44, 0x78, 0x4c, 0x3c,
  0xca, 0x89, 0x12, 0x3d, 0x6e, 0x12, 0x85, 0xbe, 0x96, 0x7d, 0x1e, 0xbe,
  0x98, 0xed, 0xa2, 0xbd, 0xbd, 0x41, 0x3e, 0xbc, 0x96, 0x4c, 0x2a, 0x3e,
  0xcf, 0x27, 0x4a, 0xbe, 0xf4, 0xdc, 0x95, 0x3d, 0x1f, 0x4b, 0x2f, 0xbe,
  0x16, 0x5f, 0x0f, 0xbe, 0x34, 0x8b, 0xcf, 0xbb, 0x91, 0x59, 0x14, 0xbe,
  0x80, 0xa5, 0x7a, 0x3b, 0x54, 0x89, 0xbe, 0x3d, 0xf4, 0x66, 0x1d, 0xbe,
  0xb7, 0x35, 0x20, 0xbe, 0xeb, 0x3e, 0x5c, 0xbe, 0x78, 0x42, 0x5a, 0x3e,
  0x91, 0x4f, 0xe2, 0x3d, 0xaa, 0xe0, 0x95, 0x3c, 0x2b, 0xb8, 0x93, 0xbb,
  0x36, 0x38, 0xa7, 0xbb, 0xa3, 0xe8, 0x38, 0x3e, 0x2d, 0xf2, 0xa3, 0xbb,
  0x93, 0x6b, 0x3f, 0x3d, 0x40, 0x99, 0xd3, 0xbd, 0xa8, 0xcf, 0x0e, 0xbe,
  0xe3, 0x58, 0xff, 0x3d, 0x75, 0x1c, 0x0f, 0x3e, 0x22, 0x3d, 0xd8, 0x3d,
  0xb5, 0xcc, 0x7d, 0x3d, 0x5a, 0xaf, 0x23, 0xbe, 0xc4, 0xf4, 0xee, 0x3b,
  0xa6, 0xff, 0x09, 0xbe, 0x28, 0x3f, 0xb8, 0x3d, 0x9d, 0x2b, 0xcc, 0xba,
  0x05, 0x35, 0xbb, 0xbd, 0x86, 0xee, 0x3c, 0x3d, 0xc4, 0x8f, 0x06, 0xbe,
  0x8d, 0xeb, 0xca, 0x3d, 0xdc, 0xb4, 0x8b, 0x3d, 0x1d, 0xee, 0x48, 0x3d,
  0xa3, 0x00, 0x80, 0xbe, 0xc0, 0xa0, 0x08, 0x3d, 0x9c, 0x83, 0x80, 0xbe,
  0xdc, 0x5a, 0x3d, 0xbe, 0xf0, 0x59, 0x17, 0x3e, 0xc5, 0x5b, 0xbf, 0xbd,
  0x62, 0xd3, 0x19, 0xbd, 0xd2, 0xf3, 0x1b, 0x3d, 0x38, 0xc3, 0x35, 0x3e,
  0x79, 0x6a, 0xe4, 0x3d, 0x33, 0x84, 0xc3, 0x3c, 0x51, 0x90, 0x9f, 0xbc,
  0xa2, 0x3e, 0x42, 0x3e, 0xd0, 0x70, 0xe0, 0xbd, 0x8d, 0xee, 0x20, 0xbe,
  0x00, 0xe8, 0x13, 0x3e, 0x29, 0x70, 0xb3, 0xbd, 0x50, 0x7f, 0x96, 0x3b,
  0x51, 0x69, 0x9a, 0x3d, 0xcd, 0x1e, 0x32, 0x3b, 0xbf, 0x54, 0x3b, 0x3e,
  0xc0, 0xd2, 0x4f, 0x3e, 0xf6, 0x80, 0x36, 0x3c, 0x2e, 0x05, 0x86, 0xbe,
  0x54, 0x47, 0x99, 0xbc, 0x75, 0xe2, 0xed, 0x3d, 0x78, 0x41, 0xd0, 0xbc,
  0x73, 0x30, 0xbb, 0xbc, 0xa6, 0xce, 0xc8, 0x3d, 0x35, 0x7d, 0x10, 0x3e,
  0x94, 0xff, 0x10, 0xbd, 0x55, 0x22, 0xc8, 0x3d, 0xbd, 0x81, 0x02, 0xbd,
  0xf0, 0xd2, 0xcf, 0xbd, 0xa3, 0xb7, 0xd6, 0xbd, 0x8c, 0x89, 0x41, 0x3e,
  0x09, 0xb2, 0xb6, 0x3d, 0x4f, 0xf1, 0x56, 0xbe, 0xdf, 0x2d, 0xa2, 0xbd,
  0x6f, 0x2c, 0x96, 0xbd, 0x01, 0x38, 0x7a, 0xbe, 0xf1, 0x40, 0x29, 0xbd,
  0x36, 0xc7, 0x63, 0xbd, 0x32, 0xed, 0x0a, 0x3c, 0x0a, 0x88, 0x3d, 0xbd,
  0xc1, 0x69, 0xe2, 0xbd, 0xa7, 0xc6, 0x17, 0x3e, 0xaa, 0xba, 0xf2, 0xbb,
  0x07, 0x47, 0x7e, 0xbc, 0x9f, 0xc9, 0xc7, 0xbd, 0xd6, 0xdd, 0x18, 0x3c,
  0x8d, 0xa1, 0x37, 0xbd, 0x22, 0x2e, 0x57, 0x3d, 0x63, 0x37, 0x7b, 0xbd,
  0x6b, 0x47, 0x58, 0x3d, 0x9b, 0x18, 0x14, 0x3c, 0x46, 0xc9, 0xb9, 0x3d,
  0xb5, 0x56, 0x32, 0xbd, 0xef, 0xe4, 0xaf, 0x3c, 0xeb, 0x22, 0x1d, 0xbe,
  0xcb, 0xcd, 0xd1, 0xbb, 0xbc, 0x56, 0xae, 0xbd, 0xbf, 0x8a, 0x3e, 0x3e,
  0xd1, 0xb6, 0xb1, 0x3d, 0x5d, 0x7b, 0x70, 0x3e, 0x81, 0xcd, 0x2c, 0x3d,
  0xf8, 0xa4, 0x36, 0xbe, 0x8d, 0xb0, 0x47, 0x3d, 0x50, 0x98, 0x26, 0x3b,
  0x9d, 0x23, 0x20, 0xbd, 0xe3, 0x77, 0xef, 0x3a, 0x4f, 0x6f, 0x2b, 0xbd,
  0x84, 0x34, 0x4a, 0xbe, 0x84, 0x7b, 0x11, 0xbe, 0xe5, 0xe9, 0x24, 0xbe,
  0xe2, 0xf8, 0x36, 0x3e, 0x2a, 0xa1, 0x66, 0x3e, 0x42, 0xd9, 0x94, 0xbd,
  0x40, 0xdb, 0xb9, 0x3d, 0x43, 0x89, 0x51, 0xbe, 0x16, 0x13, 0x86, 0xbd,
  0x13, 0xec, 0x27, 0x3e, 0x30, 0x18, 0xa1, 0xbd, 0x64, 0x6c, 0x08, 0xbe,
  0xad, 0x8c, 0x64, 0x3d, 0x63, 0xe8, 0x3d, 0xbe, 0x62, 0xf8, 0x9c, 0xbd,
  0xb3, 0x58, 0x26, 0x3e, 0xba, 0x8b, 0x58, 0xbc, 0x64, 0x27, 0xb4, 0x3d,
  0x02, 0x0c, 0x1f, 0xbc, 0x86, 0x71, 0x82, 0x3d, 0x80, 0x15, 0x74, 0x3d,
  0x22, 0x06, 0xfe, 0xbd, 0xce, 0xe3, 0x8c, 0x3c, 0xf1, 0x1c, 0xb2, 0x3d,
  0x70, 0x7f, 0xb3, 0x3c, 0x6f, 0xc9, 0x4b, 0x3e, 0x8f, 0x0e, 0x06, 0xbc,
  0xd0, 0xdb, 0x12, 0x3e, 0xdb, 0x79, 0x53, 0x3e, 0xba, 0xc8, 0x27, 0xbe,
  0xda, 0x3f, 0x0f, 0xbb, 0xf2, 0xa5, 0xb9, 0x3c, 0xf6, 0xc9, 0x08, 0xbe,
  0x5c, 0x02, 0x08, 0x3d, 0x7b, 0xd6, 0x03, 0x3e, 0x43, 0x55, 0xb8, 0xbd,
  0x2a, 0x91, 0x57, 0xbc, 0x20, 0x97, 0xfb, 0x3d, 0xac, 0xd7, 0x5c, 0xbe,
  0x90, 0x47, 0x5f, 0x3e, 0x4f, 0x6b, 0x9c, 0xbd, 0xd1, 0x78, 0xb7, 0x3c,
  0xdb, 0xd8, 0x7b, 0xbc, 0x08, 0x3f, 0x08, 0x3e, 0x99, 0xa6, 0x33, 0xbd,
  0x52, 0xeb, 0x2c, 0xbe, 0x64, 0xb0, 0xef, 0xbc, 0xe6, 0x53, 0xe8, 0xbd,
  0x46, 0xdc, 0x1e, 0xbd, 0x1c, 0x08, 0xa2, 0xbc, 0x62, 0xcb, 0x05, 0x3e,
  0x36, 0x7f, 0xb5, 0x3d, 0x10, 0x9b, 0x24, 0x3e, 0x6e, 0x25, 0x54, 0x3e,
  0x24, 0x54, 0x4b, 0x3e, 0x74, 0xa7, 0x13, 0x3d, 0x0d, 0x30, 0x19, 0xbe,
  0x62, 0xd8, 0x8f, 0x3d, 0xc3, 0x79, 0xd3, 0xbd, 0x6c, 0xfc, 0x90, 0xbd,
  0xa6, 0x20, 0x10, 0x3d, 0x27, 0xf5, 0xea, 0xbd, 0xc4, 0x96, 0x78, 0x3c,
  0x04, 0xcc, 0x7b, 0xbd, 0x45, 0x23, 0x03, 0xbe, 0x92, 0x54, 0x3c, 0xbe,
  0xca, 0x4d, 0x08, 0x3e, 0x2a, 0x96, 0x4f, 0x3b, 0xa7, 0x2e, 0xc3, 0xbc,
  0xe2, 0x16, 0xfe, 0x3c, 0x3d, 0xe5, 0xbc, 0xbd, 0xc4, 0xab, 0xba, 0xbd,
  0x33, 0x76, 0x40, 0xbd, 0x03, 0x6c, 0x09, 0x3e, 0x04, 0xd8, 0xd1, 0x3d,
  0xd7, 0xfc, 0x4e, 0x3e, 0x96, 0x81, 0x60, 0xbd, 0xf6, 0x90, 0x8c, 0x3d,
  0x57, 0x77, 0x49, 0xbe, 0x69, 0xd6, 0x2a, 0x3c, 0xa2, 0x59, 0x6f, 0xbd,
  0xf0, 0xb0, 0x8c, 0x3c, 0x2b, 0x2c, 0x31, 0xbe, 0xc4, 0x9e, 0x54, 0xbe,
  0xce, 0xa3, 0x36, 0x3e, 0x63, 0x73, 0xa8, 0x3c, 0x27, 0x18, 0x9e, 0x3c,
  0xa9, 0x38, 0x34, 0xbe, 0xa2, 0xf2, 0xbb, 0x3d, 0xd1, 0xf9, 0xbe, 0xbd,
  0x58, 0x1a, 0xb5, 0xbd, 0x26, 0xb2, 0xd3, 0x3b, 0xc0, 0x3d, 0x7b, 0xbd,
  0xe7, 0x8a, 0xd1, 0xbd, 0x4e, 0xee, 0x08, 0x3d, 0xf1, 0x6c, 0x4a, 0x3e,
  0xa8, 0xb0, 0xd4, 0xbc, 0x1d, 0xfb, 0x2d, 0xbe, 0x6b, 0x25, 0xe9, 0xbd,
  0x5f, 0xf7, 0xac, 0xbd, 0x93, 0x05, 0x7a, 0xbc, 0x0e, 0x11, 0x4b, 0xbe,
  0x74, 0x0d, 0xad, 0xbd, 0xcb, 0x69, 0x5a, 0xbd, 0xab, 0x29, 0xf5, 0xba,
  0x24, 0xc0, 0xbd, 0xbd, 0x9c, 0x89, 0xdb, 0xbd, 0x52, 0x2a, 0x38, 0x3e,
  0xf7, 0x45, 0x2c, 0xbd, 0xc0, 0x64, 0x27, 0xbe, 0xd1, 0xc7, 0xc4, 0x3b,
  0x1c, 0xa0, 0x30, 0xbe, 0xa3, 0x06, 0x9b, 0xbd, 0xa5, 0x65, 0x63, 0xbe,
  0x9e, 0x50, 0xa5, 0x3d, 0x3b, 0x2a, 0xa1, 0x3d, 0x42, 0x6f, 0xf8, 0x3d,
  0x58, 0x37, 0x87, 0x3c, 0x56, 0x11, 0x86, 0x3d, 0xdc, 0xce, 0x8a, 0x3c,
  0x0f, 0x92, 0x2e, 0xbc, 0x3d, 0xc6, 0xd7, 0xbd, 0xda, 0x23, 0x69, 0xbd,
  0xfa, 0xfc, 0xce, 0x3d, 0x80, 0x4a, 0xbb, 0x3d, 0xb4, 0x50, 0x12, 0x3e,
  0xad, 0x4a, 0x00, 0x3e, 0xe3, 0x2a, 0x0f, 0x3d, 0xc9, 0x72, 0xab, 0x3d,
  0xd4, 0x9f, 0x6d, 0xbe, 0x9e, 0x0d, 0x44, 0xbd, 0xe0, 0x53, 0x82, 0xbc,
  0x1c, 0xf1, 0x72, 0xbd, 0x1a, 0x68, 0xf2, 0x3d, 0xf4, 0x78, 0x10, 0xbe,
  0x58, 0xac, 0x02, 0xbe, 0x84, 0x24, 0x1d, 0x3b, 0x5d, 0x69, 0x25, 0x3e,
  0xba, 0xbf, 0x03, 0xbe, 0x83, 0x6c, 0x59, 0x3d, 0xf1, 0xa6, 0xa3, 0xbd,
  0x80, 0x51, 0xee, 0xbd, 0x5f, 0x06, 0xf4, 0xb8, 0x3f, 0x7c, 0x11, 0xbd,
  0x1d, 0xd5, 0x38, 0x3c, 0x64, 0x49, 0xf3, 0x3d, 0x10, 0x85, 0xd8, 0xbd,
  0x90, 0x6e, 0x54, 0xbe, 0xdc, 0x89, 0x3f, 0xbc, 0x6a, 0xf4, 0x03, 0x3d,
  0x05, 0x99, 0x84, 0xbd, 0xf9, 0xcb, 0xc1, 0x3c, 0x70, 0xdd, 0x77, 0xbd,
  0x51, 0xfe, 0x59, 0xbd, 0x44, 0x96, 0x8f, 0x3d, 0xfc, 0x1b, 0xa0, 0x3d,
  0x5a, 0x4c, 0x85, 0x3d, 0x6c, 0x2b, 0x11, 0xbe, 0xb5, 0xda, 0xd2, 0x3d,
  0x69, 0xbe, 0x24, 0xbd, 0xf1, 0xd1, 0x78, 0x3d, 0xb8, 0xa8, 0xea, 0x3d,
  0x31, 0x79, 0x9c, 0xbd, 0x7e, 0x29, 0x19, 0x3e, 0x1c, 0xf3, 0x3d, 0xbe,
  0x88, 0x4a, 0x11, 0xbd, 0x49, 0x50, 0x09, 0xbe, 0xd5, 0xf9, 0xec, 0xbd,
  0x45, 0x4c, 0xb9, 0x3d, 0x9d, 0x64, 0x05, 0x3e, 0xec, 0x5c, 0x47, 0xbe,
  0x97, 0xfa, 0x05, 0x3d, 0x1b, 0xca, 0x0f, 0xbe, 0xfc, 0xe9, 0x4c, 0x3d,
  0x29, 0x87, 0xfd, 0xbd, 0xc0, 0xf9, 0x91, 0x3d, 0x4e, 0x26, 0x80, 0x3e,
  0x0b, 0x4a, 0x50, 0x3c, 0x34, 0x83, 0x22, 0xbe, 0x36, 0x34, 0x19, 0xbe,
  0xab, 0x24, 0xb8, 0x3d, 0x87, 0x4b, 0x7f, 0x3b, 0xdb, 0x2e, 0xe4, 0xbd,
  0xda, 0x2a, 0x5e, 0xbe, 0xb5, 0xbf, 0x03, 0xbd, 0x22, 0x35, 0x15, 0x3e,
  0x5b, 0x3b, 0x83, 0xbd, 0x17, 0x84, 0xd5, 0xbd, 0xb5, 0xf7, 0x98, 0x3d,
  0x14, 0xf1, 0x8d, 0x3c, 0xb4, 0x8c, 0xee, 0x3d, 0x79, 0x2a, 0x2d, 0xbe,
  0xc3, 0xf3, 0x2a, 0x3d, 0xe2, 0x5d, 0xbb, 0xbd, 0xe2, 0x7c, 0x00, 0x3e,
  0x32, 0x24, 0x7d, 0xbe, 0x74, 0xb6, 0x9a, 0xbc, 0xd8, 0xb9, 0xac, 0xbd,
  0x80, 0x55, 0x67, 0x3d, 0x2b, 0xab, 0xc4, 0x3d, 0x37, 0xf9, 0x15, 0xbe,
  0x9d, 0x72, 0x7b, 0xbe, 0x1e, 0xd8, 0x92, 0x3d, 0x00, 0xf8, 0x80, 0x3e,
  0x7a, 0x55, 0x74, 0x3d, 0x92, 0xfd, 0x0c, 0x3d, 0xad, 0x80, 0x09, 0x3e,
  0xcc, 0xea, 0x19, 0xbe, 0x3a, 0xed, 0x35, 0xbe, 0x94, 0xd2, 0x79, 0xbd,
  0xdc, 0x63, 0xf1, 0x3d, 0xe6, 0x61, 0x16, 0x3d, 0x84, 0xf9, 0xdf, 0x3d,
  0x82, 0xdc, 0xce, 0xbd, 0x9d, 0x8c, 0x17, 0xbe, 0xbd, 0x78, 0xdc, 0xba,
  0x18, 0x05, 0xe1, 0x3d, 0x71, 0x6e, 0xdf, 0x3d, 0x96, 0x40, 0x30, 0x3e,
  0xb5, 0x0b, 0x73, 0x3e, 0x59, 0x9c, 0x5c, 0xbe, 0x50, 0xaa, 0x70, 0xbe,
  0x0b, 0xc5, 0x09, 0xbe, 0x7c, 0xe9, 0x11, 0x3d, 0x90, 0x95, 0x76, 0x3d,
  0x9e, 0x7d, 0x57, 0x3e, 0x0c, 0x81, 0xe8, 0x3d, 0xf2, 0xc7, 0x92, 0x3d,
  0x37, 0x3a, 0x21, 0xbe, 0x8a, 0x9c, 0x28, 0x3d, 0x9c, 0xc3, 0x42, 0xbe,
  0x0f, 0x5f, 0x67, 0x3d, 0x95, 0xa5, 0x92, 0x3d, 0x7c, 0xa1, 0x75, 0xbc,
  0xb8, 0x65, 0x71, 0xbe, 0xe0, 0x18, 0x94, 0x3d, 0x6e, 0xfe, 0x28, 0x3e,
  0x65, 0x99, 0x60, 0x3e, 0x99, 0xd7, 0x0c, 0xbe, 0x05, 0x02, 0x15, 0x3b,
  0xb7, 0x01, 0xed, 0xbc, 0x28, 0xa5, 0xc2, 0xbc, 0x09, 0xe8, 0x72, 0xbb,
  0x00, 0x8b, 0x1b, 0xbe, 0x10, 0xfb, 0xd8, 0x3d, 0xfe, 0xf4, 0x03, 0xbe,
  0xa6, 0x65, 0x25, 0xbe, 0xe6, 0xd9, 0x9a, 0xbd, 0xec, 0x2d, 0x66, 0x3d,
  0x0a, 0x80, 0x29, 0xbd, 0xb8, 0xf1, 0x84, 0x3d, 0x0a, 0x26, 0x1c, 0xbe,
  0x03, 0xa0, 0x64, 0x3d, 0x03, 0xae, 0x91, 0x3d, 0xe0, 0xa1, 0x97, 0xbd,
  0x3c, 0x3a, 0x84, 0x3e, 0x6d, 0x4b, 0x15, 0x3d, 0x96, 0x15, 0xbc, 0xbd,
  0x60, 0x38, 0x1f, 0x3e, 0xb4, 0x00, 0x57, 0x3c, 0xa5, 0x51, 0x23, 0x3e,
  0xb0, 0xc8, 0xa2, 0x3d, 0x6e, 0x03, 0x77, 0x3c, 0xac, 0x7f, 0x29, 0xbc,
  0x67, 0x8d, 0x3d, 0x3e, 0xda, 0x85, 0x8b, 0x3d, 0x37, 0xf3, 0x06, 0xbe,
  0x74, 0x62, 0x8f, 0x3b, 0xdf, 0xe8, 0x18, 0x3d, 0x83, 0x7e, 0x08, 0xbd,
  0x05, 0x34, 0xeb, 0xbb, 0x73, 0x46, 0xd0, 0xbd, 0x5f, 0xcb, 0xd4, 0xbd,
  0x2b, 0x67, 0xfa, 0x3c, 0x0b, 0x78, 0x44, 0xbd, 0x43, 0x6e, 0x98, 0x3d,
  0x0c, 0xd9, 0xa0, 0xbd, 0x09, 0x5d, 0x3a, 0xbe, 0x16, 0x16, 0x84, 0xbe,
  0x97, 0xcb, 0x15, 0xbe, 0x00, 0x4e, 0xd5, 0xbd, 0xfd, 0x7b, 0xb2, 0x3d,
  0x9a, 0x92, 0x95, 0xbd, 0xeb, 0xc1, 0x77, 0x3c, 0xd1, 0xbc, 0x1e, 0xbe,
  0x2d, 0x64, 0x09, 0xbd, 0xe5, 0xc0, 0xb4, 0x3d, 0x3a, 0xd9, 0x17, 0xbe,
  0x97, 0x5e, 0xd7, 0x3c, 0x5c, 0x8b, 0x95, 0xbd, 0x13, 0x21, 0x4e, 0xbe,
  0x5b, 0xc9, 0xd9, 0xbd, 0x18, 0x5d, 0x3a, 0x3e, 0xb1, 0x14, 0x20, 0xbe,
  0x3c, 0x0a, 0x49, 0xbe, 0xfa, 0xf1, 0x87, 0xbd, 0x87, 0x1f, 0x67, 0xbe,
  0x02, 0x20, 0xd8, 0x3d, 0x0d, 0x06, 0x09, 0x3e, 0x9c, 0xfa, 0x01, 0x3e,
  0x08, 0x01, 0x23, 0xbe, 0xef, 0xb9, 0x18, 0x3d, 0xcd, 0xf2, 0xb5, 0x3d,
  0x2f, 0xa1, 0x57, 0x3e, 0x55, 0xfb, 0x5a, 0x3e, 0xcf, 0x51, 0x19, 0x3e,
  0xa6, 0x85, 0x99, 0x3d, 0x29, 0x6c, 0x3e, 0xbe, 0x57, 0xd8, 0x14, 0xbe,
  0xc8, 0xf3, 0xa1, 0x3d, 0x86, 0x42, 0xff, 0xbd, 0xc8, 0x82, 0xae, 0xbc,
  0xf7, 0x96, 0x8a, 0x3d, 0x15, 0xc1, 0x09, 0x3e, 0xba, 0x72, 0x7c, 0xbd,
  0x53, 0xbc, 0x16, 0xbe, 0x9f, 0x3a, 0xf8, 0x3d, 0xae, 0x47, 0x11, 0xbe,
  0xd8, 0x4e, 0x1e, 0xbe, 0xb3, 0xc8, 0x28, 0x3d, 0xa5, 0x70, 0x1e, 0xbe,
  0x3f, 0xa5, 0x2b, 0x3e, 0xdd, 0x38, 0x03, 0x3e, 0xa7, 0xbd, 0xf8, 0xbd,
  0x5e, 0x59, 0x16, 0xbe, 0x90, 0xa9, 0x43, 0xbc, 0xb8, 0x5a, 0x3a, 0xbe,
  0x8e, 0x67, 0x02, 0x3e, 0x0c, 0xf2, 0x5c, 0x3d, 0x78, 0x2d, 0xf5, 0xbd,
  0x76, 0xc3, 0xfc, 0xbd, 0xee, 0x85, 0xd1, 0xbd, 0x4e, 0x85, 0x88, 0x3d,
  0x39, 0xd3, 0xd2, 0x3d, 0x22, 0x87, 0x47, 0xbe, 0x1f, 0x43, 0x02, 0x3b,
  0xa8, 0x28, 0xe7, 0x3c, 0x5f, 0x99, 0xb1, 0x3d, 0x92, 0x60, 0xe4, 0xbd,
  0x39, 0xfd, 0x49, 0xbd, 0xd9, 0x85, 0xbe, 0xbd, 0xe2, 0x71, 0xcd, 0xbd,
  0x50, 0xd1, 0x30, 0xbe, 0xe8, 0xab, 0x19, 0xbd, 0xa5, 0x07, 0x61, 0x3d,
  0x1b, 0x66, 0x62, 0x3d, 0xd7, 0x3b, 0x4e, 0x3d, 0xc0, 0xb9, 0xd6, 0xbd,
  0xb3, 0x8f, 0x68, 0xbd, 0x0e, 0xd4, 0xec, 0xbd, 0x53, 0xb8, 0x33, 0x3d,
  0x17, 0x1d, 0xd3, 0xb8, 0x6f, 0x07, 0x0f, 0x3d, 0x8c, 0x76, 0x1f, 0x3d,
  0x28, 0x96, 0xff, 0xbd, 0x20, 0xa4, 0x5f, 0xbd, 0x05, 0x8f, 0x2c, 0xbc,
  0x9f, 0xbd, 0x92, 0x3d, 0x43, 0xc8, 0x21, 0xbe, 0x71, 0xb8, 0x0c, 0x3e,
  0xc5, 0x84, 0xa3, 0xbd, 0x83, 0x78, 0x06, 0x3e, 0xc7, 0x1a, 0x3c, 0xbd,
  0x1f, 0xbe, 0x03, 0xbe, 0xca, 0x36, 0x07, 0x3e, 0x0a, 0x4f, 0x1c, 0x3e,
  0x02, 0xf4, 0xd4, 0xbc, 0x86, 0x40, 0xe4, 0x3d, 0xa8, 0xa3, 0x35, 0xbe,
  0xee, 0x0e, 0x57, 0xbd, 0x29, 0xb3, 0xe3, 0xbc, 0x1b, 0x23, 0x48, 0x3c,
  0x70, 0xdc, 0x3c, 0x3e, 0xda, 0x54, 0x2b, 0xbd, 0xfa, 0xc9, 0xbe, 0xbd,
  0x8d, 0xde, 0x55, 0x3e, 0x7d, 0xb6, 0xf8, 0xbd, 0xd1, 0xe3, 0xe2, 0x3d,
  0xdd, 0x1d, 0xe5, 0xbd, 0x6c, 0xab, 0x5b, 0xbe, 0xe7, 0x63, 0x79, 0x3d,
  0x3d, 0x20, 0xf7, 0x3c, 0x74, 0xfb, 0x3b, 0xbd, 0x1c, 0x8d, 0xfd, 0x3d,
  0xf6, 0xfa, 0xda, 0xbd, 0x3c, 0xcd, 0xcd, 0xbc, 0xd1, 0x13, 0x9f, 0x3c,
  0xd1, 0xe9, 0x58, 0xbe, 0x5c, 0xbc, 0x9d, 0x3d, 0x80, 0x4f, 0x3e, 0xbe,
  0xf8, 0x25, 0x21, 0x3e, 0xa5, 0xc4, 0xbc, 0xbd, 0x5d, 0xd7, 0xe5, 0x3c,
  0xb7, 0xc4, 0x67, 0xbd, 0x8a, 0x9e, 0x81, 0x3d, 0x76, 0x72, 0x5c, 0x3e,
  0xef, 0x89, 0xa7, 0xbd, 0xcc, 0x6f, 0xa0, 0x3d, 0x97, 0x2a, 0x08, 0x3e,
  0xaa, 0x43, 0x01, 0xbe, 0x9f, 0x3a, 0xe1, 0x3d, 0x07, 0x06, 0xf9, 0x3d,
  0x67, 0xf0, 0xc1, 0xbd, 0xa4, 0xcc, 0x2e, 0x3d, 0xa6, 0x4d, 0x01, 0x3e,
  0xa5, 0xe2, 0x65, 0x3d, 0x1b, 0x8e, 0xe0, 0x3c, 0x46, 0xfa, 0x1c, 0x3e,
  0xe7, 0xfe, 0xe7, 0x3d, 0x0a, 0x56, 0xc0, 0x3d, 0x01, 0xf0, 0x4a, 0x3d,
  0xb5, 0x2b, 0x4b, 0xbe, 0x13, 0x46, 0xf6, 0x3d, 0x44, 0x83, 0x52, 0xbd,
  0xff, 0xdb, 0xcb, 0x3d, 0x49, 0xc9, 0xe8, 0xbc, 0x80, 0xd3, 0xb4, 0xbd,
  0xbd, 0x4a, 0xa2, 0xbd, 0xd9, 0x0f, 0x85, 0xbc, 0x54, 0xfe, 0xa0, 0xbe,
  0x66, 0xfc, 0xd7, 0xbd, 0x3e, 0x4f, 0x1b, 0xbd, 0x92, 0x2f, 0x81, 0x3e,
  0x31, 0xd2, 0x23, 0xbe, 0x30, 0x64, 0x11, 0xbe, 0xb9, 0xc9, 0x11, 0xbe,
  0x13, 0xb4, 0x82, 0xbd, 0x56, 0x1b, 0x6b, 0x3d, 0x4e, 0x44, 0x22, 0xbe,
  0x55, 0xc6, 0x04, 0x3d, 0xcf, 0xba, 0x7c, 0x3d, 0x47, 0x42, 0x29, 0x3e,
  0x24, 0x68, 0x46, 0x3e, 0x04, 0x87, 0x46, 0x3a, 0x38, 0xf9, 0x28, 0xbe,
  0x4e, 0x81, 0x77, 0xbd, 0x14, 0xb9, 0x57, 0x3d, 0x4e, 0x1f, 0x4d, 0x3e,
  0x71, 0xe8, 0x37, 0xbe, 0x15, 0xa6, 0xe2, 0x3d, 0xfa, 0xe7, 0x0a, 0xba,
  0xec, 0xd2, 0x37, 0x3e, 0x18, 0x13, 0xfc, 0xbd, 0x74, 0xc5, 0xae, 0x3d,
  0xe8, 0xc7, 0x31, 0xbe, 0x2f, 0xf9, 0x55, 0xbe, 0x6f, 0x97, 0x9e, 0x3c,
  0x8a, 0x5b, 0x5b, 0xbe, 0x27, 0xc3, 0x35, 0x3e, 0xb5, 0x4d, 0x99, 0xbb,
  0x20, 0xb5, 0x20, 0x3e, 0x81, 0x4d, 0x24, 0x3e, 0x89, 0xc7, 0xe2, 0x3b,
  0x4c, 0x4e, 0xd5, 0x3d, 0x58, 0x89, 0xfb, 0x3d, 0xa4, 0x87, 0x14, 0xbe,
  0xc0, 0xae, 0x35, 0x3d, 0x18, 0xaa, 0x0c, 0xbe, 0xaa, 0xb0, 0x89, 0xbe,
  0x68, 0x80, 0x5b, 0xbd, 0x65, 0x27, 0xaa, 0xbd, 0x7a, 0x11, 0x72, 0xbd,
  0x17, 0x1e, 0x80, 0x3e, 0x44, 0x10, 0x1e, 0xbe, 0x52, 0x3b, 0x7d, 0xbd,
  0xb0, 0x7d, 0x86, 0xbc, 0x1f, 0xaf, 0x1a, 0xbd, 0x3f, 0x87, 0xea, 0xbd,
  0x30, 0x98, 0x15, 0x3d, 0xf7, 0xe1, 0xa0, 0x3d, 0x68, 0xdb, 0x29, 0xbe,
  0x1c, 0x01, 0x71, 0xbd, 0x1f, 0xb9, 0x52, 0xbe, 0x0a, 0x5a, 0x9a, 0xbd,
  0x14, 0x6c, 0x04, 0x3e, 0xec, 0x76, 0xc7, 0x3d, 0x46, 0x0a, 0xfa, 0xbc,
  0xc7, 0xfa, 0x2f, 0x3d, 0x5f, 0xb1, 0x24, 0xbe, 0x8e, 0xda, 0x0e, 0xbe,
  0x3a, 0x8f, 0xa7, 0x3d, 0xe5, 0x90, 0x4a, 0xbe, 0x02, 0x96, 0xa0, 0xbd,
  0x29, 0x27, 0xcd, 0xbd, 0x85, 0x7f, 0x1f, 0x3d, 0x59, 0x18, 0x01, 0x3d,
  0x25, 0x14, 0xdc, 0xbc, 0x96, 0x4a, 0xb8, 0xbc, 0x95, 0xd3, 0x16, 0x3e,
  0x39, 0x82, 0x6c, 0xbe, 0xcc, 0x16, 0x10, 0x3e, 0xe9, 0x96, 0x56, 0xbd,
  0xdb, 0x7a, 0xca, 0xbd, 0x63, 0x4c, 0x1c, 0x3e, 0x0f, 0x96, 0xde, 0xbc,
  0xd8, 0x81, 0x10, 0x3d, 0x37, 0x70, 0x9c, 0x3d, 0xf6, 0x64, 0x2d, 0x3e,
  0x3c, 0x03, 0x09, 0x3e, 0x9d, 0xa3, 0xc6, 0x3d, 0x02, 0xd9, 0x06, 0x3e,
  0xee, 0x6c, 0x3f, 0xbe, 0x8e, 0xec, 0x8b, 0xbe, 0x18, 0x4b, 0xb5, 0xbc,
  0x23, 0xfa, 0x24, 0x3c, 0xf2, 0x4c, 0x6e, 0xbd, 0x37, 0xee, 0x05, 0x3e,
  0x0d, 0xc4, 0xe8, 0xbd, 0x2f, 0x77, 0x9e, 0xbc, 0x26, 0xcf, 0x1d, 0xbd,
  0xc6, 0x29, 0x0f, 0x3d, 0x5c, 0xa9, 0x08, 0xbe, 0x0e, 0x18, 0x15, 0x3e,
  0xc1, 0x1f, 0x6f, 0x3e, 0xe6, 0x88, 0x98, 0x3d, 0x72, 0x54, 0x14, 0x3c,
  0x9c, 0xb0, 0xf5, 0xbd, 0x1d, 0x62, 0x84, 0x3c, 0xb5, 0x2a, 0xf4, 0x3c,
  0x4b, 0xfe, 0x86, 0xbe, 0xcd, 0x05, 0x46, 0x3c, 0xa1, 0x6c, 0x62, 0x3d,
  0x94, 0x61, 0xd3, 0xbd, 0x52, 0x80, 0x00, 0xbe, 0x4f, 0x89, 0x02, 0xbe,
  0x47, 0x96, 0x16, 0x3e, 0x1c, 0x24, 0x48, 0xbd, 0x08, 0xd2, 0x12, 0xbe,
  0xd2, 0xd3, 0x7c, 0xbd, 0xe5, 0xc0, 0x51, 0xbe, 0xfd, 0xed, 0xad, 0xbd,
  0xa5, 0x91, 0x41, 0x3e, 0xde, 0x50, 0x71, 0x3c, 0x9e, 0x6e, 0x34, 0x3e,
  0x0c, 0x4b, 0x7f, 0xbe, 0x1c, 0x69, 0x2c, 0x3e, 0xb3, 0x8b, 0xb4, 0xbd,
  0x15, 0x66, 0x40, 0x3d, 0x6c, 0xae, 0x0d, 0xbd, 0x0b, 0xdc, 0xc0, 0xbd,
  0x9d, 0x82, 0xf9, 0x3d, 0x0d, 0x2a, 0x0c, 0xbd, 0x40, 0x4d, 0x17, 0xbe,
  0xed, 0xfe, 0xa8, 0xbc, 0xe6, 0x4f, 0xdb, 0x3c, 0x96, 0x8b, 0x23, 0x3e,
  0x21, 0x17, 0x7f, 0xbe, 0xe8, 0x10, 0xdb, 0x3c, 0xf6, 0xe9, 0xb9, 0x3d,
  0x6b, 0xb4, 0xfa, 0x3c, 0x5a, 0x42, 0xb5, 0xbd, 0xaa, 0x34, 0x06, 0x3e,
  0x05, 0x5d, 0x8a, 0x3d, 0xac, 0x87, 0x42, 0x3d, 0x26, 0x87, 0x8d, 0xbd,
  0xba, 0xae, 0x1b, 0x3d, 0x29, 0x6e, 0xa0, 0x3d, 0xaf, 0x9c, 0x05, 0xbe,
  0x64, 0x82, 0x5f, 0xbc, 0x7b, 0x73, 0x06, 0x3d, 0x4b, 0x5a, 0xb7, 0x3d,
  0x5b, 0x32, 0xc5, 0x3c, 0x6c, 0x57, 0xf4, 0xbd, 0x5e, 0xf4, 0x63, 0xbd,
  0x29, 0xe1, 0xd6, 0x3c, 0x2e, 0x97, 0xd1, 0xbc, 0x1a, 0x1d, 0x9f, 0x3d,
  0x05, 0x07, 0x58, 0xbd, 0x2e, 0xeb, 0x40, 0x3d, 0xc1, 0xd4, 0x00, 0x3e,
  0x3f, 0x68, 0x0d, 0xbe, 0x20, 0x36, 0x23, 0x3b, 0xd9, 0x8a, 0x52, 0xbd,
  0xce, 0x06, 0x98, 0xbd, 0x73, 0x8d, 0x28, 0xbd, 0x88, 0x29, 0x16, 0x3d,
  0xd8, 0x7b, 0xaa, 0xbd, 0x41, 0xcf, 0x3c, 0xbe, 0x56, 0x9c, 0xf7, 0xbd,
  0x7c, 0xc2, 0xb4, 0xbd, 0x45, 0x54, 0x04, 0x3e, 0xaa, 0xfb, 0x04, 0xbe,
  0x6e, 0x42, 0x16, 0x3e, 0x7b, 0x6b, 0x6a, 0x3d, 0x21, 0x96, 0x49, 0x3e,
  0xf9, 0x4e, 0x30, 0xbd, 0xe0, 0xd9, 0x26, 0xbe, 0x6d, 0x8d, 0xc6, 0x3d,
  0xf7, 0xef, 0x14, 0xbd, 0x22, 0x68, 0x13, 0xbe, 0x56, 0x9f, 0x68, 0x3c,
  0x86, 0x70, 0x86, 0xbc, 0x62, 0x7c, 0x0d, 0xbe, 0x72, 0x55, 0x8a, 0x3d,
  0xbb, 0x91, 0x5d, 0x3c, 0x26, 0x98, 0xc5, 0xbc, 0xde, 0x60, 0x84, 0x3e,
  0x72, 0x69, 0xff, 0xbd, 0x6c, 0x2c, 0x06, 0xbd, 0x72, 0x6f, 0x3a, 0xbe,
  0xab, 0x69, 0x59, 0x3e, 0x38, 0xa1, 0xf4, 0x3d, 0x54, 0xda, 0x54, 0x3d,
  0xf8, 0x90, 0x09, 0x3d, 0xae, 0x54, 0xed, 0x3d, 0x5f, 0xf9, 0x9f, 0xbd,
  0x2d, 0xdb, 0xb5, 0x3d, 0x8d, 0xe9, 0x02, 0x3e, 0xb3, 0x69, 0x52, 0x3d,
  0x49, 0x8b, 0x03, 0x3e, 0xf8, 0xef, 0x15, 0xbe, 0xb5, 0xd6, 0x1e, 0x3d,
  0xe0, 0x2d, 0xd5, 0xbd, 0x3f, 0xd0, 0x2b, 0x3e, 0xfe, 0x54, 0x22, 0xbe,
  0x12, 0x2c, 0x8d, 0xbe, 0xe7, 0xb9, 0x03, 0xbe, 0x65, 0x33, 0x86, 0xbe,
  0x82, 0xdb, 0x72, 0x3d, 0x17, 0x4b, 0xbe, 0x3d, 0x90, 0xde, 0x2d, 0xbe,
  0xd7, 0x24, 0xf4, 0x3c, 0x73, 0x10, 0xf6, 0x3d, 0xa9, 0x06, 0xae, 0xbd,
  0x39, 0x5a, 0x0a, 0xbd, 0x66, 0x9d, 0xc6, 0xbd, 0x3b, 0xd5, 0x33, 0x3d,
  0x84, 0xb9, 0x71, 0x3e, 0x9e, 0x31, 0x1a, 0x3d, 0x82, 0x68, 0xd7, 0xbd,
  0xcc, 0x11, 0x0f, 0x3e, 0x25, 0x7d, 0x62, 0xbc, 0xa9, 0x47, 0x48, 0xbe,
  0x61, 0xc1, 0x3e, 0xbe, 0x75, 0x96, 0xd8, 0xbd, 0x70, 0x8e, 0x22, 0xbd,
  0xb1, 0x5c, 0x65, 0xbd, 0xc8, 0xc9, 0x10, 0x3e, 0x61, 0x9b, 0x48, 0xbe,
  0x38, 0x15, 0x42, 0x3d, 0xdf, 0x5a, 0x65, 0x3d, 0x77, 0x68, 0xf3, 0x3d,
  0x90, 0x15, 0xd4, 0x3d, 0x8d, 0xb3, 0x76, 0xbe, 0x88, 0xa3, 0x14, 0x3e,
  0x3b, 0x71, 0x06, 0xbe, 0x78, 0xf6, 0xa9, 0x3c, 0x98, 0x48, 0xea, 0x3b,
  0xf4, 0x6f, 0x2d, 0xbe, 0x5f, 0x82, 0x9b, 0xbd, 0x03, 0x4d, 0x21, 0xbd,
  0xfe, 0xd2, 0xe2, 0xbd, 0xf3, 0x5b, 0x85, 0xbe, 0x26, 0x7e, 0xc0, 0xbd,
  0xf1, 0x18, 0x99, 0x3c, 0x55, 0x6e, 0x08, 0x3c, 0xf6, 0x05, 0x14, 0xbb,
  0x47, 0x47, 0x60, 0x3d, 0x08, 0xb9, 0x83, 0xbd, 0xb2, 0xa2, 0x8a, 0xbd,
  0xbb, 0x53, 0xb5, 0x3d, 0x83, 0xc3, 0x8d, 0x3d, 0xab, 0xe9, 0x76, 0x3d,
  0x79, 0xdc, 0xb2, 0xbc, 0x3b, 0xd2, 0xb0, 0xbd, 0x30, 0x53, 0x2e, 0x3d,
  0x4f, 0xc8, 0x38, 0xbe, 0x46, 0x93, 0x29, 0xbe, 0xe2, 0xb4, 0x1a, 0x3d,
  0xf8, 0x83, 0x28, 0xbe, 0xc1, 0x79, 0x0b, 0x3e, 0x6b, 0xe0, 0x88, 0xbd,
  0x68, 0xc4, 0x11, 0x3e, 0xf5, 0x65, 0x8f, 0xbd, 0x0e, 0xd4, 0x61, 0x3e,
  0x78, 0xd0, 0x0d, 0x3e, 0x99, 0x8f, 0xa2, 0xbd, 0x2b, 0x8c, 0x33, 0x3e,
  0xf3, 0x5b, 0x46, 0xbe, 0x45, 0x21, 0x04, 0x3e, 0x28, 0x2d, 0x28, 0xbc,
  0x6a, 0xcc, 0xd4, 0x3b, 0x38, 0xd6, 0x06, 0x3e, 0xee, 0x72, 0xad, 0xbd,
  0x5f, 0x7f, 0xde, 0xbd, 0x2a, 0xcb, 0x7d, 0xbd, 0xec, 0xf5, 0x8c, 0x3d,
  0x1a, 0x6b, 0xba, 0x3d, 0x4d, 0x05, 0xef, 0x3c, 0x41, 0x09, 0x6e, 0x3d,
  0xe9, 0xc6, 0x21, 0xbe, 0xf8, 0x78, 0x00, 0xbe, 0x70, 0xf8, 0xab, 0x3d,
  0x2f, 0x69, 0xb8, 0xbd, 0xc8, 0xf9, 0x82, 0xbd, 0x61, 0x39, 0x84, 0xbd,
  0x6d, 0xd7, 0x3f, 0xbe, 0x23, 0x8b, 0xc5, 0xbc, 0xcd, 0x38, 0xfd, 0x3c,
  0x24, 0x25, 0x2a, 0xbe, 0x15, 0x5f, 0x03, 0xbe, 0x12, 0x9b, 0x06, 0x3d,
  0xd8, 0x08, 0x10, 0x3e, 0x95, 0x4a, 0xad, 0x3c, 0xe8, 0x1b, 0x52, 0x3d,
  0x3f, 0xef, 0x38, 0xbe, 0x3a, 0x90, 0xb4, 0x3d, 0xeb, 0x46, 0x52, 0x3d,
  0xc3, 0xa6, 0x54, 0x3d, 0x15, 0xa7, 0x2d, 0xbe, 0x45, 0x58, 0xb6, 0xbd,
  0x61, 0x1c, 0xdf, 0xbd, 0xa1, 0x37, 0x32, 0x3d, 0xc5, 0xd5, 0x13, 0x3e,
  0x85, 0x39, 0x2d, 0xbd, 0x90, 0x70, 0xea, 0xbb, 0x00, 0x7e, 0x0f, 0x3d,
  0x8f, 0xed, 0x98, 0xbd, 0x9f, 0x3b, 0x83, 0x3e, 0x5a, 0xf9, 0x1b, 0xbe,
  0x28, 0x5c, 0x3f, 0xbd, 0xc1, 0x68, 0x6a, 0x3e, 0x76, 0xe1, 0x13, 0xbe,
  0x76, 0x32, 0x21, 0x3e, 0x3b, 0x7c, 0x10, 0x3d, 0xbd, 0x81, 0x8a, 0xbc,
  0xc8, 0x25, 0x34, 0x3e, 0xab, 0x79, 0xde, 0x3d, 0xd4, 0xae, 0xdc, 0x3d,
  0xa8, 0x66, 0xa2, 0xba, 0x21, 0xe4, 0x73, 0x3d, 0x3c, 0xff, 0xa1, 0xbd,
  0xec, 0x32, 0x94, 0xbc, 0x4a, 0x9c, 0x05, 0xbe, 0x35, 0x09, 0x50, 0xbe,
  0x1a, 0xb7, 0xff, 0xbd, 0x5e, 0x4c, 0x04, 0x3d, 0x12, 0x0c, 0x40, 0xbd,
  0x70, 0x85, 0x8a, 0xbc, 0x76, 0xbf, 0x4c, 0xbe, 0xc0, 0x38, 0x8e, 0x3e,
  0xf8, 0x40, 0x56, 0xbe, 0x23, 0xc6, 0x25, 0xbe, 0xbc, 0x0e, 0x0a, 0x3d,
  0xd2, 0x75, 0x32, 0xbe, 0x65, 0x0f, 0x50, 0x3d, 0x00, 0x75, 0xc3, 0x3d,
  0xbf, 0xab, 0x26, 0x3e, 0xd0, 0xba, 0x3a, 0xbe, 0xea, 0xe5, 0xd9, 0xbd,
  0x57, 0xa8, 0x13, 0x3e, 0x69, 0xd7, 0x86, 0x3d, 0xa5, 0xdd, 0x18, 0x3e,
  0x40, 0xdf, 0xcf, 0x3d, 0xad, 0x0c, 0x36, 0x3e, 0x20, 0x8a, 0xe1, 0x3d,
  0x85, 0x01, 0x26, 0xbe, 0x7d, 0x9c, 0xfb, 0xbd, 0xd3, 0xa0, 0xd3, 0xbc,
  0xee, 0x3a, 0x67, 0x3d, 0xcb, 0xdc, 0xef, 0x3d, 0x92, 0xb6, 0x1e, 0x3e,
  0x97, 0x1d, 0x08, 0xbe, 0xc0, 0xd4, 0x23, 0x3e, 0x11, 0x7e, 0x67, 0xbe,
  0xee, 0xb4, 0xd9, 0x3d, 0x87, 0xf6, 0xe7, 0xbc, 0xf4, 0x7a, 0xd2, 0xbc,
  0x4b, 0x18, 0xbb, 0xbd, 0x3a, 0x79, 0xec, 0x3d, 0x67, 0x77, 0x7f, 0x3d,
  0x41, 0x2c, 0xd0, 0x3d, 0x4b, 0x48, 0x27, 0xbe, 0x1c, 0x81, 0x4b, 0x3d,
  0x0d, 0xc9, 0x00, 0xbe, 0xbe, 0xd1, 0x25, 0xbd, 0x2d, 0x4d, 0x36, 0xbe,
  0x63, 0x3c, 0x28, 0xbd, 0x9e, 0xc2, 0x8a, 0xbe, 0x86, 0xe3, 0xd3, 0xbc,
  0x92, 0x9e, 0x0e, 0x3e, 0x21, 0x31, 0x71, 0xba, 0x18, 0x3f, 0x27, 0xbc,
  0x11, 0x58, 0x91, 0x3d, 0x75, 0xf9, 0xf6, 0x3d, 0x2e, 0x5a, 0x03, 0x3d,
  0xb1, 0xe9, 0x02, 0xbe, 0x50, 0xfd, 0x39, 0xbb, 0x5a, 0x4e, 0xe1, 0x3d,
  0x16, 0x43, 0x8d, 0x3e, 0x84, 0xf3, 0xa2, 0xbb, 0x02, 0x9a, 0xee, 0x3b,
  0x78, 0x1f, 0xcb, 0xbd, 0x9b, 0x90, 0x93, 0xbd, 0x0f, 0xf7, 0xab, 0xbc,
  0xaa, 0x5e, 0x0a, 0xbe, 0x95, 0x4c, 0xbb, 0xbd, 0xc2, 0x45, 0x1f, 0x3e,
  0x51, 0xdb, 0x27, 0xbe, 0xe8, 0x74, 0x53, 0xbe, 0xbb, 0x19, 0x2e, 0xbd,
  0x71, 0xda, 0x69, 0xbe, 0x0d, 0xda, 0x5a, 0x3e, 0x72, 0xfc, 0x3a, 0xbe,
  0x7e, 0x2b, 0x54, 0x3e, 0x8d, 0x2c, 0xd1, 0xbd, 0x32, 0xc7, 0xb0, 0xbd,
  0x68, 0xf4, 0xc3, 0x3d, 0x91, 0x6a, 0x23, 0xbe, 0xda, 0x8f, 0xe4, 0x3c,
  0x70, 0x81, 0xf3, 0xbd, 0x11, 0x3b, 0x11, 0x3e, 0x1f, 0x26, 0x4e, 0xbd,
  0xe5, 0xbf, 0x0d, 0xbe, 0xde, 0x75, 0x0c, 0x3e, 0x97, 0x57, 0x64, 0xbe,
  0x0f, 0xc9, 0x79, 0x3d, 0xd7, 0xbf, 0x92, 0xbc, 0xaa, 0xe1, 0x41, 0xbd,
  0x38, 0x75, 0xb1, 0x3d, 0x17, 0x03, 0x3f, 0x3d, 0x60, 0xff, 0xbd, 0x3d,
  0x6b, 0x2c, 0xa0, 0xbd, 0x0f, 0x88, 0xa6, 0xbc, 0x94, 0xe0, 0xcd, 0x3c,
  0x58, 0x51, 0xc4, 0x3d, 0xf7, 0x54, 0x3a, 0xbc, 0x64, 0x85, 0xa2, 0xbd,
  0xb0, 0xdc, 0x06, 0x3e, 0x34, 0x1b, 0xbf, 0x3d, 0xf5, 0x5a, 0x15, 0xbe,
  0xdf, 0x1f, 0x99, 0x3b, 0x19, 0x89, 0x37, 0xbe, 0xa2, 0xf0, 0x0d, 0xbe,
  0x43, 0xad, 0x1c, 0x3e, 0x46, 0x65, 0x52, 0xbd, 0x8d, 0x00, 0x38, 0x3d,
  0x10, 0x53, 0x99, 0xbb, 0x65, 0xe9, 0x8f, 0x3c, 0xce, 0x1a, 0x72, 0x3d,
  0x4e, 0xa9, 0xe9, 0x3d, 0x4c, 0xb0, 0x54, 0xbd, 0x40, 0xdd, 0x51, 0xbc,
  0xc2, 0x72, 0x18, 0xbe, 0xad, 0xe2, 0x2d, 0x3d, 0xa2, 0x6e, 0x51, 0xbd,
  0x8b, 0x6a, 0xdf, 0x3d, 0x55, 0xba, 0x39, 0xbe, 0x4e, 0xf3, 0xb9, 0xbd,
  0xa0, 0x8e, 0x77, 0x3e, 0xaa, 0x12, 0x95, 0xbb, 0x0d, 0x82, 0x4a, 0xbe,
  0x83, 0xd1, 0x4c, 0xbd, 0x74, 0x89, 0x6d, 0x3e, 0xa4, 0xd2, 0xad, 0xbd,
  0x1e, 0x9b, 0x00, 0xbe, 0x28, 0x39, 0x23, 0x3e, 0xaf, 0xef, 0xbf, 0x3c,
  0x5d, 0x4f, 0xdf, 0xbc, 0xee, 0xfe, 0x5d, 0x3d, 0xbf, 0x09, 0xa3, 0x3d,
  0x5b, 0x64, 0x80, 0xbd, 0xd8, 0x4a, 0x7e, 0xbd, 0x32, 0x8b, 0x3a, 0xbe,
  0x8b, 0xe5, 0xa6, 0x3d, 0xa7, 0x13, 0xdd, 0xbd, 0x1b, 0x5e, 0x02, 0xbe,
  0x58, 0x5f, 0xe7, 0xbd, 0xdb, 0x96, 0x57, 0x3e, 0x72, 0xa7, 0x9f, 0x3d,
  0xbe, 0x30, 0x2a, 0x3e, 0x9e, 0xe9, 0x86, 0x3c, 0x70, 0xb1, 0x3b, 0xbd,
  0x9c, 0xe3, 0xcd, 0x3d, 0x8b, 0x0f, 0x6b, 0xbe, 0x4c, 0xe5, 0x03, 0x3e,
  0x9d, 0x66, 0xb0, 0x3d, 0xe0, 0x9e, 0x49, 0x3c, 0x42, 0xfe, 0xff, 0xff,
  0x04, 0x00, 0x00, 0x00, 0x0c, 0x00, 0x00, 0x00, 0xff, 0xff, 0xff, 0xff,
  0x64, 0x00, 0x00, 0x00, 0x10, 0x00, 0x00, 0x00, 0x5a, 0xfe, 0xff, 0xff,
  0x04, 0x00, 0x00, 0x00, 0x0c, 0x00, 0x00, 0x00, 0xff, 0xff, 0xff, 0xff,
  0x19, 0x00, 0x00, 0x00, 0x20, 0x00, 0x00, 0x00, 0x72, 0xfe, 0xff, 0xff,
  0x04, 0x00, 0x00, 0x00, 0x20, 0x00, 0x00, 0x00, 0xc4, 0xb3, 0x09, 0xbd,
  0x4a, 0xbf, 0x1e, 0xbd, 0xc9, 0x19, 0x9c, 0x3d, 0xa2, 0x24, 0x07, 0xbd,
  0x80, 0xb1, 0x4d, 0xbe, 0x65, 0xb9, 0xae, 0x3e, 0xff, 0xc0, 0x9c, 0xbd,
  0xb2, 0x3b, 0xec, 0xbd, 0x9e, 0xfe, 0xff, 0xff, 0x04, 0x00, 0x00, 0x00,
  0x40, 0x00, 0x00, 0x00, 0xf0, 0x7c, 0x3e, 0xbc, 0x8f, 0x1f, 0x73, 0x3c,
  0x27, 0x53, 0x1e, 0x3d, 0xe9, 0xa3, 0x83, 0xbc, 0x83, 0x2c, 0x26, 0x3e,
  0x8b, 0xcb, 0x8d, 0xbb, 0x1d, 0xb0, 0xbe, 0xbd, 0xe1, 0xc8, 0xd9, 0x3b,
  0x4d, 0xc1, 0x1d, 0xbd, 0xd6, 0x0c, 0xc8, 0x3c, 0xd3, 0x10, 0xad, 0xbb,
  0xf7, 0x30, 0x65, 0xbd, 0x7c, 0x28, 0x53, 0xbd, 0x4e, 0x5b, 0x24, 0x3d,
  0xf5, 0xca, 0xbd, 0xbb, 0x97, 0xb1, 0x22, 0xbd, 0xea, 0xfe, 0xff, 0xff,
  0x04, 0x00, 0x00, 0x00, 0x40, 0x00, 0x00, 0x00, 0xb9, 0xeb, 0x0b, 0x3b,
  0x43, 0x46, 0x00, 0xbd, 0xa6, 0xd2, 0x6e, 0x3d, 0xb2, 0xdb, 0x4a, 0x3d,
  0xa7, 0x6b, 0x84, 0x3d, 0x99, 0x3d, 0x9d, 0x3b, 0x8e, 0xb4, 0xcf, 0x3c,
  0xca, 0xb2, 0x0e, 0x3d, 0x32, 0x14, 0x59, 0x3d, 0x05, 0x49, 0x88, 0xbd,
  0xce, 0xaa, 0x9f, 0x3c, 0x2d, 0x11, 0x0b, 0xbd, 0x94, 0x82, 0x8c, 0x3d,
  0x62, 0xcc, 0x80, 0x3c, 0x3d, 0x63, 0xb0, 0x3c, 0xd7, 0x2e, 0xc5, 0x3d,
  0x44, 0xe1, 0xff, 0xff, 0x48, 0xe1, 0xff, 0xff, 0x0f, 0x00, 0x00, 0x00,
  0x4d, 0x4c, 0x49, 0x52, 0x20, 0x43, 0x6f, 0x6e, 0x76, 0x65, 0x72, 0x74,
  0x65, 0x64, 0x2e, 0x00, 0x01, 0x00, 0x00, 0x00, 0x14, 0x00, 0x00, 0x00,
  0x00, 0x00, 0x0e, 0x00, 0x18, 0x00, 0x14, 0x00, 0x10, 0x00, 0x0c, 0x00,
  0x08, 0x00, 0x04, 0x00, 0x0e, 0x00, 0x00, 0x00, 0x14, 0x00, 0x00, 0x00,
  0x1c, 0x00, 0x00, 0x00, 0xac, 0x04, 0x00, 0x00, 0xb0, 0x04, 0x00, 0x00,
  0xb4, 0x04, 0x00, 0x00, 0x04, 0x00, 0x00, 0x00, 0x6d, 0x61, 0x69, 0x6e,
  0x00, 0x00, 0x00, 0x00, 0x15, 0x00, 0x00, 0x00, 0x64, 0x04, 0x00, 0x00,
  0x04, 0x04, 0x00, 0x00, 0xc0, 0x03, 0x00, 0x00, 0x8c, 0x03, 0x00, 0x00,
  0x64, 0x03, 0x00, 0x00, 0x28, 0x03, 0x00, 0x00, 0xe4, 0x02, 0x00, 0x00,
  0xb0, 0x02, 0x00, 0x00, 0x7c, 0x02, 0x00, 0x00, 0x54, 0x02, 0x00, 0x00,
  0x28, 0x02, 0x00, 0x00, 0xf8, 0x01, 0x00, 0x00, 0xa8, 0x01, 0x00, 0x00,
  0x80, 0x01, 0x00, 0x00, 0x54, 0x01, 0x00, 0x00, 0x14, 0x01, 0x00, 0x00,
  0xe0, 0x00, 0x00, 0x00, 0xac, 0x00, 0x00, 0x00, 0x78, 0x00, 0x00, 0x00,
  0x40, 0x00, 0x00, 0x00, 0x04, 0x00, 0x00, 0x00, 0x5a, 0xfc, 0xff, 0xff,
  0x1c, 0x00, 0x00, 0x00, 0x00, 0x00, 0x00, 0x09, 0x1c, 0x00, 0x00, 0x00,
  0x20, 0x00, 0x00, 0x00, 0x09, 0x00, 0x00, 0x00, 0x00, 0x00, 0x06, 0x00,
  0x08, 0x00, 0x04, 0x00, 0x06, 0x00, 0x00, 0x00, 0x00, 0x00, 0x80, 0x3f,
  0x01, 0x00, 0x00, 0x00, 0x2b, 0x00, 0x00, 0x00, 0x01, 0x00, 0x00, 0x00,
  0x2a, 0x00, 0x00, 0x00, 0x92, 0xfc, 0xff, 0xff, 0x14, 0x00, 0x00, 0x00,
  0x00, 0x00, 0x00, 0x08, 0x10, 0x00, 0x00, 0x00, 0x14, 0x00, 0x00, 0x00,
  0x08, 0x00, 0x00, 0x00, 0x44, 0xe2, 0xff, 0xff, 0x01, 0x00, 0x00, 0x00,
  0x2a, 0x00, 0x00, 0x00, 0x03, 0x00, 0x00, 0x00, 0x29, 0x00, 0x00, 0x00,
  0x0a, 0x00, 0x00, 0x00, 0x03, 0x00, 0x00, 0x00, 0xc6, 0xfc, 0xff, 0xff,
  0x14, 0x00, 0x00, 0x00, 0x00, 0x00, 0x00, 0x1b, 0x10, 0x00, 0x00, 0x00,
  0x14, 0x00, 0x00, 0x00, 0x07, 0x00, 0x00, 0x00, 0x78, 0xe2, 0xff, 0xff,
  0x01, 0x00, 0x00, 0x00, 0x29, 0x00, 0x00, 0x00, 0x02, 0x00, 0x00, 0x00,
  0x28, 0x00, 0x00, 0x00, 0x0f, 0x00, 0x00, 0x00, 0xf6, 0xfc, 0xff, 0xff,
  0x14, 0x00, 0x00, 0x00, 0x00, 0x00, 0x00, 0x0b, 0x10, 0x00, 0x00, 0x00,
  0x14, 0x00, 0x00, 0x00, 0x03, 0x00, 0x00, 0x00, 0xa8, 0xe2, 0xff, 0xff,
  0x01, 0x00, 0x00, 0x00, 0x28, 0x00, 0x00, 0x00, 0x02, 0x00, 0x00, 0x00,
  0x27, 0x00, 0x00, 0x00, 0x15, 0x00, 0x00, 0x00, 0x26, 0xfd, 0xff, 0xff,
  0x14, 0x00, 0x00, 0x00, 0x00, 0x00, 0x00, 0x15, 0x10, 0x00, 0x00, 0x00,
  0x14, 0x00, 0x00, 0x00, 0x02, 0x00, 0x00, 0x00, 0xd8, 0xe2, 0xff, 0xff,
  0x01, 0x00, 0x00, 0x00, 0x27, 0x00, 0x00, 0x00, 0x02, 0x00, 0x00, 0x00,
  0x26, 0x00, 0x00, 0x00, 0x14, 0x00, 0x00, 0x00, 0x56, 0xfd, 0xff, 0xff,
  0x1c, 0x00, 0x00, 0x00, 0x00, 0x00, 0x00, 0x0b, 0x1c, 0x00, 0x00, 0x00,
  0x20, 0x00, 0x00, 0x00, 0x03, 0x00, 0x00, 0x00, 0x00, 0x00, 0x06, 0x00,
  0x08, 0x00, 0x07, 0x00, 0x06, 0x00, 0x00, 0x00, 0x00, 0x00, 0x00, 0x01,
  0x01, 0x00, 0x00, 0x00, 0x26, 0x00, 0x00, 0x00, 0x02, 0x00, 0x00, 0x00,
  0x25, 0x00, 0x00, 0x00, 0x16, 0x00, 0x00, 0x00, 0x22, 0xfe, 0xff, 0xff,
  0x0c, 0x00, 0x00, 0x00, 0x10, 0x00, 0x00, 0x00, 0x06, 0x00, 0x00, 0x00,
  0x01, 0x00, 0x00, 0x00, 0x25, 0x00, 0x00, 0x00, 0x03, 0x00, 0x00, 0x00,
  0x24, 0x00, 0x00, 0x00, 0x0c, 0x00, 0x00, 0x00, 0x0d, 0x00, 0x00, 0x00,
  0x4a, 0xfe, 0xff, 0xff, 0x0c, 0x00, 0x00, 0x00, 0x10, 0x00, 0x00, 0x00,
  0x04, 0x00, 0x00, 0x00, 0x01, 0x00, 0x00, 0x00, 0x24, 0x00, 0x00, 0x00,
  0x02, 0x00, 0x00, 0x00, 0x23, 0x00, 0x00, 0x00, 0x04, 0x00, 0x00, 0x00,
  0xde, 0xfd, 0xff, 0xff, 0x20, 0x00, 0x00, 0x00, 0x00, 0x00, 0x00, 0x01,
  0x28, 0x00, 0x00, 0x00, 0x2c, 0x00, 0x00, 0x00, 0x01, 0x00, 0x00, 0x00,
  0x00, 0x00, 0x0a, 0x00, 0x10, 0x00, 0x0f, 0x00, 0x08, 0x00, 0x04, 0x00,
  0x0a, 0x00, 0x00, 0x00, 0x01, 0x00, 0x00, 0x00, 0x01, 0x00, 0x00, 0x00,
  0x00, 0x00, 0x00, 0x01, 0x01, 0x00, 0x00, 0x00, 0x23, 0x00, 0x00, 0x00,
  0x03, 0x00, 0x00, 0x00, 0x22, 0x00, 0x00, 0x00, 0x06, 0x00, 0x00, 0x00,
  0x07, 0x00, 0x00, 0x00, 0xce, 0xfd, 0xff, 0xff, 0x10, 0x00, 0x00, 0x00,
  0x00, 0x00, 0x00, 0x34, 0x0c, 0x00, 0x00, 0x00, 0x10, 0x00, 0x00, 0x00,
  0xd8, 0xe3, 0xff, 0xff, 0x01, 0x00, 0x00, 0x00, 0x22, 0x00, 0x00, 0x00,
  0x02, 0x00, 0x00, 0x00, 0x21, 0x00, 0x00, 0x00, 0x0b, 0x00, 0x00, 0x00,
  0xe6, 0xfe, 0xff, 0xff, 0x0c, 0x00, 0x00, 0x00, 0x10, 0x00, 0x00, 0x00,
  0x05, 0x00, 0x00, 0x00, 0x01, 0x00, 0x00, 0x00, 0x21, 0x00, 0x00, 0x00,
  0x03, 0x00, 0x00, 0x00, 0x20, 0x00, 0x00, 0x00, 0x0c, 0x00, 0x00, 0x00,
  0x0e, 0x00, 0x00, 0x00, 0x0e, 0xff, 0xff, 0xff, 0x0c, 0x00, 0x00, 0x00,
  0x10, 0x00, 0x00, 0x00, 0x04, 0x00, 0x00, 0x00, 0x01, 0x00, 0x00, 0x00,
  0x20, 0x00, 0x00, 0x00, 0x02, 0x00, 0x00, 0x00, 0x1f, 0x00, 0x00, 0x00,
  0x05, 0x00, 0x00, 0x00, 0xa2, 0xfe, 0xff, 0xff, 0x14, 0x00, 0x00, 0x00,
  0x00, 0x00, 0x00, 0x0b, 0x10, 0x00, 0x00, 0x00, 0x14, 0x00, 0x00, 0x00,
  0x03, 0x00, 0x00, 0x00, 0x54, 0xe4, 0xff, 0xff, 0x01, 0x00, 0x00, 0x00,
  0x1f, 0x00, 0x00, 0x00, 0x02, 0x00, 0x00, 0x00, 0x1e, 0x00, 0x00, 0x00,
  0x11, 0x00, 0x00, 0x00, 0xd2, 0xfe, 0xff, 0xff, 0x14, 0x00, 0x00, 0x00,
  0x00, 0x00, 0x00, 0x15, 0x10, 0x00, 0x00, 0x00, 0x14, 0x00, 0x00, 0x00,
  0x02, 0x00, 0x00, 0x00, 0x84, 0xe4, 0xff, 0xff, 0x01, 0x00, 0x00, 0x00,
  0x1e, 0x00, 0x00, 0x00, 0x02, 0x00, 0x00, 0x00, 0x1d, 0x00, 0x00, 0x00,
  0x10, 0x00, 0x00, 0x00, 0x02, 0xff, 0xff, 0xff, 0x14, 0x00, 0x00, 0x00,
  0x00, 0x00, 0x00, 0x01, 0x1c, 0x00, 0x00, 0x00, 0x20, 0x00, 0x00, 0x00,
  0x01, 0x00, 0x00, 0x00, 0xf4, 0xfe, 0xff, 0xff, 0x00, 0x00, 0x00, 0x01,
  0x01, 0x00, 0x00, 0x00, 0x01, 0x00, 0x00, 0x00, 0x01, 0x00, 0x00, 0x00,
  0x1d, 0x00, 0x00, 0x00, 0x03, 0x00, 0x00, 0x00, 0x1c, 0x00, 0x00, 0x00,
  0x08, 0x00, 0x00, 0x00, 0x01, 0x00, 0x00, 0x00, 0xe6, 0xfe, 0xff, 0xff,
  0x10, 0x00, 0x00, 0x00, 0x00, 0x00, 0x00, 0x34, 0x0c, 0x00, 0x00, 0x00,
  0x10, 0x00, 0x00, 0x00, 0xf0, 0xe4, 0xff, 0xff, 0x01, 0x00, 0x00, 0x00,
  0x1c, 0x00, 0x00, 0x00, 0x02, 0x00, 0x00, 0x00, 0x1b, 0x00, 0x00, 0x00,
  0x0b, 0x00, 0x00, 0x00, 0x00, 0x00, 0x0a, 0x00, 0x10, 0x00, 0x0c, 0x00,
  0x08, 0x00, 0x04, 0x00, 0x0a, 0x00, 0x00, 0x00, 0x0c, 0x00, 0x00, 0x00,
  0x10, 0x00, 0x00, 0x00, 0x04, 0x00, 0x00, 0x00, 0x01, 0x00, 0x00, 0x00,
  0x1b, 0x00, 0x00, 0x00, 0x02, 0x00, 0x00, 0x00, 0x1a, 0x00, 0x00, 0x00,
  0x05, 0x00, 0x00, 0x00, 0x9e, 0xff, 0xff, 0xff, 0x14, 0x00, 0x00, 0x00,
  0x00, 0x00, 0x00, 0x0b, 0x10, 0x00, 0x00, 0x00, 0x14, 0x00, 0x00, 0x00,
  0x03, 0x00, 0x00, 0x00, 0x50, 0xe5, 0xff, 0xff, 0x01, 0x00, 0x00, 0x00,
  0x1a, 0x00, 0x00, 0x00, 0x02, 0x00, 0x00, 0x00, 0x19, 0x00, 0x00, 0x00,
  0x13, 0x00, 0x00, 0x00, 0xce, 0xff, 0xff, 0xff, 0x14, 0x00, 0x00, 0x00,
  0x00, 0x00, 0x00, 0x15, 0x10, 0x00, 0x00, 0x00, 0x14, 0x00, 0x00, 0x00,
  0x02, 0x00, 0x00, 0x00, 0x80, 0xe5, 0xff, 0xff, 0x01, 0x00, 0x00, 0x00,
  0x19, 0x00, 0x00, 0x00, 0x02, 0x00, 0x00, 0x00, 0x18, 0x00, 0x00, 0x00,
  0x12, 0x00, 0x00, 0x00, 0x00, 0x00, 0x0e, 0x00, 0x18, 0x00, 0x14, 0x00,
  0x10, 0x00, 0x0c, 0x00, 0x0b, 0x00, 0x04, 0x00, 0x0e, 0x00, 0x00, 0x00,
  0x20, 0x00, 0x00, 0x00, 0x00, 0x00, 0x00, 0x01, 0x28, 0x00, 0x00, 0x00,
  0x2c, 0x00, 0x00, 0x00, 0x01, 0x00, 0x00, 0x00, 0x0c, 0x00, 0x10, 0x00,
  0x00, 0x00, 0x0c, 0x00, 0x08, 0x00, 0x07, 0x00, 0x0c, 0x00, 0x00, 0x00,
  0x00, 0x00, 0x00, 0x01, 0x01, 0x00, 0x00, 0x00, 0x01, 0x00, 0x00, 0x00,
  0x01, 0x00, 0x00, 0x00, 0x18, 0x00, 0x00, 0x00, 0x03, 0x00, 0x00, 0x00,
  0x17, 0x00, 0x00, 0x00, 0x09, 0x00, 0x00, 0x00, 0x02, 0x00, 0x00, 0x00,
  0x00, 0x00, 0x0e, 0x00, 0x14, 0x00, 0x00, 0x00, 0x10, 0x00, 0x0c, 0x00,
  0x0b, 0x00, 0x04, 0x00, 0x0e, 0x00, 0x00, 0x00, 0x10, 0x00, 0x00, 0x00,
  0x00, 0x00, 0x00, 0x34, 0x0c, 0x00, 0x00, 0x00, 0x10, 0x00, 0x00, 0x00,
  0x18, 0xe6, 0xff, 0xff, 0x01, 0x00, 0x00, 0x00, 0x17, 0x00, 0x00, 0x00,
  0x02, 0x00, 0x00, 0x00, 0x00, 0x00, 0x00, 0x00, 0x0b, 0x00, 0x00, 0x00,
  0x01, 0x00, 0x00, 0x00, 0x2b, 0x00, 0x00, 0x00, 0x01, 0x00, 0x00, 0x00,
  0x00, 0x00, 0x00, 0x00, 0x2c, 0x00, 0x00, 0x00, 0xd8, 0x18, 0x00, 0x00,
  0x84, 0x18, 0x00, 0x00, 0x30, 0x18, 0x00, 0x00, 0xf4, 0x17, 0x00, 0x00,
  0xb4, 0x17, 0x00, 0x00, 0x5c, 0x17, 0x00, 0x00, 0x14, 0x17, 0x00, 0x00,
  0xd8, 0x16, 0x00, 0x00, 0x90, 0x16, 0x00, 0x00, 0x48, 0x16, 0x00, 0x00,
  0x08, 0x16, 0x00, 0x00, 0xc8, 0x15, 0x00, 0x00, 0x84, 0x15, 0x00, 0x00,
  0x14, 0x15, 0x00, 0x00, 0xa4, 0x14, 0x00, 0x00, 0x48, 0x14, 0x00, 0x00,
  0xe4, 0x13, 0x00, 0x00, 0x80, 0x13, 0x00, 0x00, 0x20, 0x13, 0x00, 0x00,
  0xc0, 0x12, 0x00, 0x00, 0x5c, 0x12, 0x00, 0x00, 0xf8, 0x11, 0x00, 0x00,
  0xac, 0x11, 0x00, 0x00, 0x28, 0x11, 0x00, 0x00, 0x20, 0x10, 0x00, 0x00,
  0xd4, 0x0e, 0x00, 0x00, 0x20, 0x0d, 0x00, 0x00, 0x74, 0x0b, 0x00, 0x00,
  0xf0, 0x0a, 0x00, 0x00, 0xe8, 0x09, 0x00, 0x00, 0x98, 0x08, 0x00, 0x00,
  0xdc, 0x06, 0x00, 0x00, 0x28, 0x05, 0x00, 0x00, 0xac, 0x04, 0x00, 0x00,
  0x2c, 0x04, 0x00, 0x00, 0xb8, 0x03, 0x00, 0x00, 0x44, 0x03, 0x00, 0x00,
  0xc8, 0x02, 0x00, 0x00, 0x40, 0x02, 0x00, 0x00, 0xc0, 0x01, 0x00, 0x00,
  0x40, 0x01, 0x00, 0x00, 0xe0, 0x00, 0x00, 0x00, 0x60, 0x00, 0x00, 0x00,
  0x04, 0x00, 0x00, 0x00, 0xee, 0xe7, 0xff, 0xff, 0x00, 0x00, 0x00, 0x01,
  0x14, 0x00, 0x00, 0x00, 0x1c, 0x00, 0x00, 0x00, 0x1c, 0x00, 0x00, 0x00,
  0x2c, 0x00, 0x00, 0x00, 0x34, 0x00, 0x00, 0x00, 0x02, 0x00, 0x00, 0x00,
  0xff, 0xff, 0xff, 0xff, 0x08, 0x00, 0x00, 0x00, 0x1c, 0xe7, 0xff, 0xff,
  0x1b, 0x00, 0x00, 0x00, 0x53, 0x74, 0x61, 0x74, 0x65, 0x66, 0x75, 0x6c,
  0x50, 0x61, 0x72, 0x74, 0x69, 0x74, 0x69, 0x6f, 0x6e, 0x65, 0x64, 0x43,
  0x61, 0x6c, 0x6c, 0x5f, 0x31, 0x3a, 0x30, 0x00, 0x02, 0x00, 0x00, 0x00,
  0x01, 0x00, 0x00, 0x00, 0x08, 0x00, 0x00, 0x00, 0x46, 0xe8, 0xff, 0xff,
  0x00, 0x00, 0x00, 0x01, 0x14, 0x00, 0x00, 0x00, 0x1c, 0x00, 0x00, 0x00,
  0x1c, 0x00, 0x00, 0x00, 0x2b, 0x00, 0x00, 0x00, 0x58, 0x00, 0x00, 0x00,
  0x02, 0x00, 0x00, 0x00, 0xff, 0xff, 0xff, 0xff, 0x08, 0x00, 0x00, 0x00,
  0x74, 0xe7, 0xff, 0xff, 0x3e, 0x00, 0x00, 0x00, 0x44, 0x65, 0x65, 0x70,
  0x43, 0x6f, 0x6e, 0x76, 0x4c, 0x53, 0x54, 0x4d, 0x5f, 0x31, 0x2f, 0x6f,
  0x75, 0x74, 0x70, 0x75, 0x74, 0x5f, 0x31, 0x2f, 0x4d, 0x61, 0x74, 0x4d,
  0x75, 0x6c, 0x3b, 0x44, 0x65, 0x65, 0x70, 0x43, 0x6f, 0x6e, 0x76, 0x4c,
  0x53, 0x54, 0x4d, 0x5f, 0x31, 0x2f, 0x6f, 0x75, 0x74, 0x70, 0x75, 0x74,
  0x5f, 0x31, 0x2f, 0x42, 0x69, 0x61, 0x73, 0x41, 0x64, 0x64, 0x00, 0x00,
  0x02, 0x00, 0x00, 0x00, 0x01, 0x00, 0x00, 0x00, 0x08, 0x00, 0x00, 0x00,
  0xc2, 0xe8, 0xff, 0xff, 0x00, 0x00, 0x00, 0x01, 0x14, 0x00, 0x00, 0x00,
  0x1c, 0x00, 0x00, 0x00, 0x1c, 0x00, 0x00, 0x00, 0x2a, 0x00, 0x00, 0x00,
  0x38, 0x00, 0x00, 0x00, 0x02, 0x00, 0x00, 0x00, 0xff, 0xff, 0xff, 0xff,
  0x20, 0x00, 0x00, 0x00, 0xf0, 0xe7, 0xff, 0xff, 0x1d, 0x00, 0x00, 0x00,
  0x44, 0x65, 0x65, 0x70, 0x43, 0x6f, 0x6e, 0x76, 0x4c, 0x53, 0x54, 0x4d,
  0x5f, 0x31, 0x2f, 0x6d, 0x61, 0x78, 0x5f, 0x70, 0x6f, 0x6f, 0x6c, 0x5f,
  0x31, 0x2f, 0x4d, 0x61, 0x78, 0x00, 0x00, 0x00, 0x02, 0x00, 0x00, 0x00,
  0x01, 0x00, 0x00, 0x00, 0x20, 0x00, 0x00, 0x00, 0x1e, 0xe9, 0xff, 0xff,
  0x00, 0x00, 0x00, 0x01, 0x14, 0x00, 0x00, 0x00, 0x20, 0x00, 0x00, 0x00,
  0x20, 0x00, 0x00, 0x00, 0x29, 0x00, 0x00, 0x00, 0x54, 0x00, 0x00, 0x00,
  0x03, 0x00, 0x00, 0x00, 0xff, 0xff, 0xff, 0xff, 0x64, 0x00, 0x00, 0x00,
  0x20, 0x00, 0x00, 0x00, 0x50, 0xe8, 0xff, 0xff, 0x36, 0x00, 0x00, 0x00,
  0x44, 0x65, 0x65, 0x70, 0x43, 0x6f, 0x6e, 0x76, 0x4c, 0x53, 0x54, 0x4d,
  0x5f, 0x31, 0x2f, 0x62, 0x61, 0x74, 0x63, 0x68, 0x5f, 0x6e, 0x6f, 0x72,
  0x6d, 0x61, 0x6c, 0x69, 0x7a, 0x61, 0x74, 0x69, 0x6f, 0x6e, 0x5f, 0x32,
  0x5f, 0x31, 0x2f, 0x62, 0x61, 0x74, 0x63, 0x68, 0x6e, 0x6f, 0x72, 0x6d,
  0x2f, 0x61, 0x64, 0x64, 0x5f, 0x31, 0x00, 0x00, 0x03, 0x00, 0x00, 0x00,
  0x01, 0x00, 0x00, 0x00, 0x64, 0x00, 0x00, 0x00, 0x20, 0x00, 0x00, 0x00,
  0x9a, 0xe9, 0xff, 0xff, 0x00, 0x00, 0x00, 0x01, 0x14, 0x00, 0x00, 0x00,
  0x20, 0x00, 0x00, 0x00, 0x20, 0x00, 0x00, 0x00, 0x28, 0x00, 0x00, 0x00,
  0x54, 0x00, 0x00, 0x00, 0x03, 0x00, 0x00, 0x00, 0xff, 0xff, 0xff, 0xff,
  0x64, 0x00, 0x00, 0x00, 0x20, 0x00, 0x00, 0x00, 0xcc, 0xe8, 0xff, 0xff,
  0x36, 0x00, 0x00, 0x00, 0x44, 0x65, 0x65, 0x70, 0x43, 0x6f, 0x6e, 0x76,
  0x4c, 0x53, 0x54, 0x4d, 0x5f, 0x31, 0x2f, 0x62, 0x61, 0x74, 0x63, 0x68,
  0x5f, 0x6e, 0x6f, 0x72, 0x6d, 0x61, 0x6c, 0x69, 0x7a, 0x61, 0x74, 0x69,
  0x6f, 0x6e, 0x5f, 0x32, 0x5f, 0x31, 0x2f, 0x62, 0x61, 0x74, 0x63, 0x68,
  0x6e, 0x6f, 0x72, 0x6d, 0x2f, 0x6d, 0x75, 0x6c, 0x5f, 0x31, 0x00, 0x00,
  0x03, 0x00, 0x00, 0x00, 0x01, 0x00, 0x00, 0x00, 0x64, 0x00, 0x00, 0x00,
  0x20, 0x00, 0x00, 0x00, 0x16, 0xea, 0xff, 0xff, 0x00, 0x00, 0x00, 0x01,
  0x14, 0x00, 0x00, 0x00, 0x20, 0x00, 0x00, 0x00, 0x20, 0x00, 0x00, 0x00,
  0x27, 0x00, 0x00, 0x00, 0x5c, 0x00, 0x00, 0x00, 0x03, 0x00, 0x00, 0x00,
  0xff, 0xff, 0xff, 0xff, 0x64, 0x00, 0x00, 0x00, 0x20, 0x00, 0x00, 0x00,
  0x48, 0xe9, 0xff, 0xff, 0x3c, 0x00, 0x00, 0x00, 0x44, 0x65, 0x65, 0x70,
  0x43, 0x6f, 0x6e, 0x76, 0x4c, 0x53, 0x54, 0x4d, 0x5f, 0x31, 0x2f, 0x63,
  0x6f, 0x6e, 0x76, 0x31, 0x64, 0x5f, 0x33, 0x2f, 0x52, 0x65, 0x6c, 0x75,
  0x3b, 0x44, 0x65, 0x65, 0x70, 0x43, 0x6f, 0x6e, 0x76, 0x4c, 0x53, 0x54,
  0x4d, 0x5f, 0x31, 0x2f, 0x63, 0x6f, 0x6e, 0x76, 0x31, 0x64, 0x5f, 0x33,
  0x2f, 0x42, 0x69, 0x61, 0x73, 0x41, 0x64, 0x64, 0x00, 0x00, 0x00, 0x00,
  0x03, 0x00, 0x00, 0x00, 0x01, 0x00, 0x00, 0x00, 0x64, 0x00, 0x00, 0x00,
  0x20, 0x00, 0x00, 0x00, 0x9a, 0xea, 0xff, 0xff, 0x00, 0x00, 0x00, 0x01,
  0x14, 0x00, 0x00, 0x00, 0x20, 0x00, 0x00, 0x00, 0x20, 0x00, 0x00, 0x00,
  0x26, 0x00, 0x00, 0x00, 0x50, 0x00, 0x00, 0x00, 0x03, 0x00, 0x00, 0x00,
  0xff, 0xff, 0xff, 0xff, 0x64, 0x00, 0x00, 0x00, 0x20, 0x00, 0x00, 0x00,
  0xcc, 0xe9, 0xff, 0xff, 0x32, 0x00, 0x00, 0x00, 0x44, 0x65, 0x65, 0x70,
  0x43, 0x6f, 0x6e, 0x76, 0x4c, 0x53, 0x54, 0x4d, 0x5f, 0x31, 0x2f, 0x63,
  0x6f, 0x6e, 0x76, 0x31, 0x64, 0x5f, 0x33, 0x2f, 0x63, 0x6f, 0x6e, 0x76,
  0x6f, 0x6c, 0x75, 0x74, 0x69, 0x6f, 0x6e, 0x2f, 0x42, 0x61, 0x74, 0x63,
  0x68, 0x54, 0x6f, 0x53, 0x70, 0x61, 0x63, 0x65, 0x4e, 0x44, 0x00, 0x00,
  0x03, 0x00, 0x00, 0x00, 0x01, 0x00, 0x00, 0x00, 0x64, 0x00, 0x00, 0x00,
  0x20, 0x00, 0x00, 0x00, 0x12, 0xeb, 0xff, 0xff, 0x00, 0x00, 0x00, 0x01,
  0x14, 0x00, 0x00, 0x00, 0x20, 0x00, 0x00, 0x00, 0x20, 0x00, 0x00, 0x00,
  0x25, 0x00, 0x00, 0x00, 0x48, 0x00, 0x00, 0x00, 0x03, 0x00, 0x00, 0x00,
  0xff, 0xff, 0xff, 0xff, 0x19, 0x00, 0x00, 0x00, 0x20, 0x00, 0x00, 0x00,
  0x44, 0xea, 0xff, 0xff, 0x2b, 0x00, 0x00, 0x00, 0x44, 0x65, 0x65, 0x70,
  0x43, 0x6f, 0x6e, 0x76, 0x4c, 0x53, 0x54, 0x4d, 0x5f, 0x31, 0x2f, 0x63,
  0x6f, 0x6e, 0x76, 0x31, 0x64, 0x5f, 0x33, 0x2f, 0x63, 0x6f, 0x6e, 0x76,
  0x6f, 0x6c, 0x75, 0x74, 0x69, 0x6f, 0x6e, 0x2f, 0x53, 0x71, 0x75, 0x65,
  0x65, 0x7a, 0x65, 0x00, 0x03, 0x00, 0x00, 0x00, 0x01, 0x00, 0x00, 0x00,
  0x19, 0x00, 0x00, 0x00, 0x20, 0x00, 0x00, 0x00, 0x82, 0xeb, 0xff, 0xff,
  0x00, 0x00, 0x00, 0x01, 0x14, 0x00, 0x00, 0x00, 0x24, 0x00, 0x00, 0x00,
  0x24, 0x00, 0x00, 0x00, 0x24, 0x00, 0x00, 0x00, 0x44, 0x00, 0x00, 0x00,
  0x04, 0x00, 0x00, 0x00, 0xff, 0xff, 0xff, 0xff, 0x01, 0x00, 0x00, 0x00,
  0x19, 0x00, 0x00, 0x00, 0x20, 0x00, 0x00, 0x00, 0xb8, 0xea, 0xff, 0xff,
  0x23, 0x00, 0x00, 0x00, 0x44, 0x65, 0x65, 0x70, 0x43, 0x6f, 0x6e, 0x76,
  0x4c, 0x53, 0x54, 0x4d, 0x5f, 0x31, 0x2f, 0x63, 0x6f, 0x6e, 0x76, 0x31,
  0x64, 0x5f, 0x33, 0x2f, 0x63, 0x6f, 0x6e, 0x76, 0x6f, 0x6c, 0x75, 0x74,
  0x69, 0x6f, 0x6e, 0x00, 0x04, 0x00, 0x00, 0x00, 0x01, 0x00, 0x00, 0x00,
  0x01, 0x00, 0x00, 0x00, 0x19, 0x00, 0x00, 0x00, 0x20, 0x00, 0x00, 0x00,
  0xf2, 0xeb, 0xff, 0xff, 0x00, 0x00, 0x00, 0x01, 0x14, 0x00, 0x00, 0x00,
  0x24, 0x00, 0x00, 0x00, 0x24, 0x00, 0x00, 0x00, 0x23, 0x00, 0x00, 0x00,
  0x50, 0x00, 0x00, 0x00, 0x04, 0x00, 0x00, 0x00, 0xff, 0xff, 0xff, 0xff,
  0x01, 0x00, 0x00, 0x00, 0x1b, 0x00, 0x00, 0x00, 0x10, 0x00, 0x00, 0x00,
  0x28, 0xeb, 0xff, 0xff, 0x2e, 0x00, 0x00, 0x00, 0x44, 0x65, 0x65, 0x70,
  0x43, 0x6f, 0x6e, 0x76, 0x4c, 0x53, 0x54, 0x4d, 0x5f, 0x31, 0x2f, 0x63,
  0x6f, 0x6e, 0x76, 0x31, 0x64, 0x5f, 0x33, 0x2f, 0x63, 0x6f, 0x6e, 0x76,
  0x6f, 0x6c, 0x75, 0x74, 0x69, 0x6f, 0x6e, 0x2f, 0x45, 0x78, 0x70, 0x61,
  0x6e, 0x64, 0x44, 0x69, 0x6d, 0x73, 0x00, 0x00, 0x04, 0x00, 0x00, 0x00,
  0x01, 0x00, 0x00, 0x00, 0x01, 0x00, 0x00, 0x00, 0x1b, 0x00, 0x00, 0x00,
  0x10, 0x00, 0x00, 0x00, 0x6e, 0xec, 0xff, 0xff, 0x00, 0x00, 0x00, 0x01,
  0x14, 0x00, 0x00, 0x00, 0x20, 0x00, 0x00, 0x00, 0x20, 0x00, 0x00, 0x00,
  0x22, 0x00, 0x00, 0x00, 0x50, 0x00, 0x00, 0x00, 0x03, 0x00, 0x00, 0x00,
  0xff, 0xff, 0xff, 0xff, 0x1b, 0x00, 0x00, 0x00, 0x10, 0x00, 0x00, 0x00,
  0xa0, 0xeb, 0xff, 0xff, 0x32, 0x00, 0x00, 0x00, 0x44, 0x65, 0x65, 0x70,
  0x43, 0x6f, 0x6e, 0x76, 0x4c, 0x53, 0x54, 0x4d, 0x5f, 0x31, 0x2f, 0x63,
  0x6f, 0x6e, 0x76, 0x31, 0x64, 0x5f, 0x33, 0x2f, 0x63, 0x6f, 0x6e, 0x76,
  0x6f, 0x6c, 0x75, 0x74, 0x69, 0x6f, 0x6e, 0x2f, 0x53, 0x70, 0x61, 0x63,
  0x65, 0x54, 0x6f, 0x42, 0x61, 0x74, 0x63, 0x68, 0x4e, 0x44, 0x00, 0x00,
  0x03, 0x00, 0x00, 0x00, 0x01, 0x00, 0x00, 0x00, 0x1b, 0x00, 0x00, 0x00,
  0x10, 0x00, 0x00, 0x00, 0xe6, 0xec, 0xff, 0xff, 0x00, 0x00, 0x00, 0x01,
  0x14, 0x00, 0x00, 0x00, 0x20, 0x00, 0x00, 0x00, 0x20, 0x00, 0x00, 0x00,
  0x21, 0x00, 0x00, 0x00, 0x88, 0x01, 0x00, 0x00, 0x03, 0x00, 0x00, 0x00,
  0xff, 0xff, 0xff, 0xff, 0x64, 0x00, 0x00, 0x00, 0x10, 0x00, 0x00, 0x00,
  0x18, 0xec, 0xff, 0xff, 0x69, 0x01, 0x00, 0x00, 0x44, 0x65, 0x65, 0x70,
  0x43, 0x6f, 0x6e, 0x76, 0x4c, 0x53, 0x54, 0x4d, 0x5f, 0x31, 0x2f, 0x62,
  0x61, 0x74, 0x63, 0x68, 0x5f, 0x6e, 0x6f, 0x72, 0x6d, 0x61, 0x6c, 0x69,
  0x7a, 0x61, 0x74, 0x69, 0x6f, 0x6e, 0x5f, 0x31, 0x5f, 0x32, 0x2f, 0x62,
  0x61, 0x74, 0x63, 0x68, 0x6e, 0x6f, 0x72, 0x6d, 0x2f, 0x61, 0x64, 0x64,
  0x5f, 0x31, 0x3b, 0x44, 0x65, 0x65, 0x70, 0x43, 0x6f, 0x6e, 0x76, 0x4c,
  0x53, 0x54, 0x4d, 0x5f, 0x31, 0x2f, 0x63, 0x6f, 0x6e, 0x76, 0x31, 0x64,
  0x5f, 0x32, 0x5f, 0x31, 0x2f, 0x63, 0x6f, 0x6e, 0x76, 0x6f, 0x6c, 0x75,
